<pad>	0
<unk>	0
<s>	0
</s>	0
on	-0
ti	-1
▁t	-2
re	-3
in	-4
er	-5
tion	-6
or	-7
▁f	-8
▁c	-9
▁a	-10
▁th	-11
es	-12
▁the	-13
en	-14
at	-15
▁o	-16
al	-17
▁S	-18
it	-19
▁s	-20
il	-21
▁for	-22
ra	-23
▁p	-24
▁d	-25
▁b	-26
ity	-27
▁in	-28
▁m	-29
si	-30
ec	-31
if	-32
et	-33
ul	-34
▁g	-35
ction	-36
▁of	-37
ri	-38
▁re	-39
ed	-40
ent	-41
ur	-42
▁M	-43
ab	-44
▁P	-45
is	-46
pl	-47
ut	-48
▁D	-49
nt	-50
▁C	-51
ol	-52
pec	-53
oc	-54
▁w	-55
el	-56
▁R	-57
di	-58
pecif	-59
ility	-60
as	-61
▁v	-62
▁A	-63
▁E	-64
▁con	-65
om	-66
ef	-67
▁to	-68
▁an	-69
un	-70
ac	-71
ic	-72
▁cur	-73
▁T	-74
ve	-75
rid	-76
ar	-77
▁bo	-78
erm	-79
put	-80
ure	-81
im	-82
▁box	-83
ers	-84
rent	-85
ation	-86
ulti	-87
um	-88
▁grid	-89
▁current	-90
ption	-91
▁I	-92
ock	-93
ultipl	-94
▁F	-95
rection	-96
st	-97
ies	-98
ing	-99
▁Set	-100
LT	-101
▁G	-102
od	-103
res	-104
direction	-105
abl	-106
tive	-107
us	-108
▁O	-109
ULT	-110
ration	-111
RE	-112
ties	-113
▁Specif	-114
eab	-115
ermeab	-116
▁option	-117
▁multipl	-118
sib	-119
ER	-120
▁and	-121
ns	-122
▁n	-123
omp	-124
em	-125
per	-126
▁permeab	-127
▁e	-128
sion	-129
▁MULT	-130
▁H	-131
▁N	-132
▁r	-133
ell	-134
▁tra	-135
ative	-136
▁input	-137
qu	-138
alu	-139
int	-140
ith	-141
▁dat	-142
▁multipli	-143
▁l	-144
os	-145
▁co	-146
efin	-147
▁data	-148
UM	-149
gi	-150
mis	-151
oint	-152
gion	-153
nsmis	-154
nsmissib	-155
ater	-156
▁(	-157
▁oil	-158
▁specif	-159
▁L	-160
atu	-161
▁with	-162
aturation	-163
▁permeability	-164
NUM	-165
lock	-166
▁region	-167
▁transmissib	-168
▁de	-169
▁us	-170
ress	-171
unction	-172
IN	-173
▁Specifies	-174
▁saturation	-175
end	-176
osity	-177
fac	-178
ied	-179
▁function	-180
cal	-181
▁valu	-182
▁Sets	-183
an	-184
ressure	-185
able	-186
ities	-187
▁cell	-188
sor	-189
ON	-190
ant	-191
AT	-192
▁block	-193
▁pressure	-194
AL	-195
OR	-196
isc	-197
▁ar	-198
▁or	-199
▁gas	-200
ension	-201
id	-202
onent	-203
IM	-204
eff	-205
ici	-206
odel	-207
▁fil	-208
effici	-209
▁K	-210
▁fl	-211
▁on	-212
▁pr	-213
efines	-214
efficient	-215
▁coefficient	-216
▁rel	-217
RA	-218
ap	-219
du	-220
th	-221
ary	-222
▁In	-223
urfac	-224
omponent	-225
▁relative	-226
▁specified	-227
OC	-228
ce	-229
has	-230
▁dep	-231
ulation	-232
▁values	-233
▁multipliers	-234
▁V	-235
▁En	-236
imum	-237
PS	-238
am	-239
REG	-240
rac	-241
CT	-242
▁B	-243
▁h	-244
ray	-245
▁sol	-246
▁visc	-247
▁array	-248
ilities	-249
▁Defines	-250
ate	-251
▁be	-252
▁water	-253
IT	-254
▁ad	-255
▁as	-256
ables	-257
point	-258
▁model	-259
ere	-260
▁CO	-261
hase	-262
▁viscosity	-263
PE	-264
▁U	-265
▁W	-266
▁Z	-267
ine	-268
vity	-269
▁surfac	-270
).	-271
AM	-272
IS	-273
OCK	-274
iff	-275
ates	-276
▁run	-277
utput	-278
ection	-279
▁cells	-280
VT	-281
ter	-282
tor	-283
yst	-284
▁Re	-285
▁end	-286
▁flu	-287
ensions	-288
IL	-289
PT	-290
ST	-291
alc	-292
▁st	-293
ature	-294
stant	-295
▁diff	-296
ach	-297
▁by	-298
ture	-299
▁file	-300
▁within	-301
imensions	-302
▁constant	-303
iz	-304
DIM	-305
ERM	-306
met	-307
▁calc	-308
▁each	-309
▁arrays	-310
▁output	-311
IF	-312
lo	-313
se	-314
ara	-315
cti	-316
DIMS	-317
ocal	-318
▁num	-319
emper	-320
aramet	-321
emperature	-322
▁Component	-323
ID	-324
QU	-325
ir	-326
ts	-327
REF	-328
OL	-329
ke	-330
tr	-331
ord	-332
trol	-333
▁ref	-334
▁diffu	-335
▁phase	-336
▁point	-337
▁paramet	-338
▁surface	-339
▁multiplier	-340
TH	-341
bi	-342
▁un	-343
▁cap	-344
▁rock	-345
▁that	-346
▁Enable	-347
▁dimensions	-348
PER	-349
ill	-350
▁pro	-351
tical	-352
▁adsor	-353
▁functions	-354
yw	-355
▁Y	-356
▁Th	-357
▁ke	-358
▁Con	-359
yword	-360
▁OPER	-361
▁comp	-362
dition	-363
▁local	-364
▁Specify	-365
▁regions	-366
▁parameters	-367
▁calculation	-368
CH	-369
CO	-370
GR	-371
ch	-372
▁al	-373
▁ex	-374
▁aqu	-375
▁PERM	-376
▁proper	-377
▁keyword	-378
▁options	-379
▁temperature	-380
CL	-381
up	-382
▁X	-383
OAM	-384
eat	-385
rix	-386
sis	-387
ver	-388
▁Use	-389
▁are	-390
atrix	-391
▁FOAM	-392
action	-393
illary	-394
▁table	-395
racture	-396
GM	-397
PC	-398
▁Al	-399
▁RE	-400
▁is	-401
▁wh	-402
cent	-403
▁DIF	-404
▁fac	-405
▁use	-406
ermal	-407
trols	-408
▁conn	-409
▁flux	-410
▁numb	-411
inimum	-412
▁Multipl	-413
VD	-414
ated	-415
ence	-416
ement	-417
▁DIFF	-418
▁used	-419
orosity	-420
▁depend	-421
▁tables	-422
AS	-423
DD	-424
DS	-425
EN	-426
eg	-427
▁EN	-428
▁HM	-429
▁at	-430
▁Gas	-431
▁sim	-432
▁depth	-433
▁inter	-434
▁diffusi	-435
▁adsorption	-436
▁properties	-437
AB	-438
AR	-439
ad	-440
ag	-441
ax	-442
ay	-443
ppl	-444
▁TH	-445
olum	-446
▁PVT	-447
▁siz	-448
▁scal	-449
aximum	-450
▁aquif	-451
▁refin	-452
▁concent	-453
▁thermal	-454
▁specific	-455
▁refinement	-456
▁concentration	-457
00	-458
CR	-459
RO	-460
le	-461
CON	-462
etw	-463
for	-464
ore	-465
ree	-466
rom	-467
tic	-468
▁NO	-469
▁gra	-470
▁from	-471
ations	-472
ystere	-473
▁solid	-474
▁connection	-475
EL	-476
MP	-477
UN	-478
▁1	-479
IPS	-480
aul	-481
een	-482
low	-483
mer	-484
▁ac	-485
▁ra	-486
ctiv	-487
ical	-488
valu	-489
▁AQU	-490
▁equ	-491
▁res	-492
▁ten	-493
▁ROCK	-494
▁betw	-495
▁tensor	-496
▁between	-497
ysteresis	-498
AC	-499
ET	-500
IP	-501
LU	-502
RF	-503
LUX	-504
VIS	-505
eth	-506
ich	-507
nce	-508
▁St	-509
IPSE	-510
ular	-511
▁dis	-512
▁Requ	-513
▁heat	-514
CLIPSE	-515
erence	-516
fracture	-517
▁OPERNUM	-518
▁minimum	-519
▁capillary	-520
▁simulation	-521
iv	-522
FIN	-523
RID	-524
URF	-525
eom	-526
ual	-527
▁mo	-528
ROCK	-529
tant	-530
▁cor	-531
▁den	-532
water	-533
ystem	-534
▁GRID	-535
ressib	-536
▁condu	-537
▁three	-538
▁volum	-539
▁system	-540
▁MULTNUM	-541
▁MULTREG	-542
▁aquifer	-543
▁Controls	-544
▁condition	-545
▁saturations	-546
AN	-547
UT	-548
ig	-549
ly	-550
oS	-551
ry	-552
IGM	-553
erv	-554
ess	-555
iti	-556
oam	-557
oly	-558
upl	-559
▁Co	-560
▁ST	-561
▁OIL	-562
▁mob	-563
olymer	-564
upling	-565
▁Activ	-566
▁defin	-567
▁files	-568
▁which	-569
▁Reques	-570
▁ECLIPSE	-571
perations	-572
▁coupling	-573
▁porosity	-574
▁constants	-575
▁Multiplies	-576
▁dependence	-577
AX	-578
PY	-579
ng	-580
uc	-581
OPT	-582
RAN	-583
art	-584
dic	-585
oir	-586
osi	-587
ple	-588
▁Im	-589
▁di	-590
bibi	-591
dual	-592
▁Oil	-593
▁set	-594
ersus	-595
▁FLUX	-596
▁geom	-597
▁redu	-598
▁runs	-599
▁well	-600
ervoir	-601
sidual	-602
▁Indic	-603
▁value	-604
egative	-605
ritical	-606
▁number	-607
▁versus	-608
bibition	-609
▁maximum	-610
▁mobility	-611
▁Indicates	-612
ressibility	-613
▁conditions	-614
▁operations	-615
▁diffusivity	-616
▁coefficients	-617
▁permeabilities	-618
LY	-619
RG	-620
ow	-621
EAT	-622
ari	-623
eta	-624
IGMA	-625
ault	-626
▁SOL	-627
▁SPE	-628
block	-629
ethod	-630
▁SURF	-631
▁Trac	-632
pplies	-633
▁curve	-634
ctivity	-635
▁matrix	-636
▁method	-637
ariation	-638
▁component	-639
▁reservoir	-640
▁Hysteresis	-641
▁compressibility	-642
VF	-643
ib	-644
me	-645
ms	-646
og	-647
▁J	-648
ION	-649
ain	-650
eig	-651
▁IN	-652
▁up	-653
OPTS	-654
eigh	-655
elec	-656
ener	-657
rain	-658
▁Cop	-659
▁FVF	-660
▁MIN	-661
ector	-662
erfor	-663
ified	-664
▁HEAT	-665
▁nine	-666
vities	-667
▁DIFFM	-668
▁Selec	-669
▁fluid	-670
▁using	-671
osition	-672
▁factor	-673
▁solver	-674
▁volume	-675
residual	-676
▁Applies	-677
▁Polymer	-678
▁Variation	-679
▁reduction	-680
▁connections	-681
DE	-682
ES	-683
KR	-684
NC	-685
OX	-686
▁2	-687
RAC	-688
VAL	-689
age	-690
den	-691
its	-692
ted	-693
▁AL	-694
▁EoS	-695
▁HMM	-696
▁LGR	-697
▁RPT	-698
▁Sol	-699
▁non	-700
inear	-701
▁COPY	-702
▁Grid	-703
▁form	-704
▁pore	-705
▁Allow	-706
▁SIGMA	-707
▁SPECH	-708
▁Theta	-709
▁sizes	-710
▁Matrix	-711
▁linear	-712
▁FLUXNUM	-713
▁section	-714
▁multiple	-715
▁direction	-716
▁pressures	-717
▁conductivity	-718
MF	-719
de	-720
ot	-721
KIP	-722
SPE	-723
YPE	-724
alt	-725
aly	-726
oth	-727
ous	-728
pol	-729
por	-730
ruc	-731
▁Ad	-732
etry	-733
itch	-734
onal	-735
▁ADD	-736
▁EQU	-737
▁Res	-738
▁The	-739
▁par	-740
struc	-741
ution	-742
▁REAC	-743
▁cont	-744
▁only	-745
▁trac	-746
▁Initi	-747
▁Select	-748
▁active	-749
▁blocks	-750
ditional	-751
▁defined	-752
▁scaling	-753
▁tension	-754
▁Reaction	-755
▁Requests	-756
▁critical	-757
▁additional	-758
AD	-759
EG	-760
IR	-761
OB	-762
ds	-763
ip	-764
lu	-765
ro	-766
ADS	-767
ITY	-768
OUT	-769
PAM	-770
SOL	-771
ave	-772
bal	-773
han	-774
kal	-775
ric	-776
ust	-777
▁DR	-778
▁IM	-779
▁PS	-780
▁SG	-781
▁SW	-782
▁im	-783
▁li	-784
SPEC	-785
VALU	-786
ilib	-787
ival	-788
mary	-789
puts	-790
tern	-791
ting	-792
▁GAS	-793
▁GRA	-794
▁com	-795
▁glo	-796
▁mod	-797
VISCT	-798
phase	-799
▁Foam	-800
▁Rock	-801
▁STON	-802
▁Scal	-803
▁dual	-804
▁flow	-805
▁radi	-806
▁rate	-807
▁size	-808
kaline	-809
sities	-810
values	-811
▁EQUAL	-812
▁Model	-813
ivalent	-814
persion	-815
▁Inputs	-816
▁OPERAT	-817
▁Tracer	-818
▁global	-819
polation	-820
▁numbers	-821
▁Negative	-822
▁Activates	-823
▁densities	-824
▁reference	-825
▁Imbibition	-826
▁dispersion	-827
▁equivalent	-828
AG	-829
AP	-830
AV	-831
DT	-832
FA	-833
QL	-834
to	-835
ug	-836
300	-837
ENS	-838
ORD	-839
RTH	-840
THT	-841
err	-842
gas	-843
ner	-844
rel	-845
sol	-846
tab	-847
ves	-848
▁FA	-849
▁KV	-850
▁TR	-851
▁en	-852
INCH	-853
ents	-854
iers	-855
thog	-856
▁100	-857
▁ACT	-858
▁END	-859
▁EQL	-860
▁KRG	-861
▁LAN	-862
▁NNC	-863
▁PLY	-864
▁Ref	-865
▁all	-866
▁err	-867
▁lim	-868
▁mol	-869
▁sch	-870
RTHER	-871
VALUE	-872
ithme	-873
tured	-874
value	-875
witch	-876
▁prod	-877
▁rati	-878
efault	-879
erical	-880
▁PINCH	-881
▁Water	-882
▁error	-883
▁gener	-884
erforms	-885
ization	-886
onality	-887
rainage	-888
▁ORTHER	-889
▁Scales	-890
▁Surfac	-891
▁Tables	-892
▁curves	-893
▁orthog	-894
ithmetic	-895
▁Enables	-896
▁unstruc	-897
▁Performs	-898
▁geometry	-899
▁interfac	-900
▁Reference	-901
▁diffusion	-902
▁generated	-903
▁numerical	-904
▁arithmetic	-905
▁surfactant	-906
▁unstructured	-907
▁orthogonality	-908
BC	-909
IC	-910
LE	-911
OF	-912
PV	-913
yp	-914
GAS	-915
ILE	-916
MOB	-917
PRO	-918
and	-919
bed	-920
bug	-921
ias	-922
ire	-923
one	-924
oss	-925
tif	-926
▁DY	-927
▁HY	-928
▁VF	-929
VISC	-930
alin	-931
eous	-932
icit	-933
oces	-934
rium	-935
ross	-936
sity	-937
umul	-938
▁Cap	-939
▁dec	-940
▁one	-941
▁pre	-942
▁typ	-943
ample	-944
▁Adds	-945
▁DREF	-946
▁Heat	-947
▁Iden	-948
▁TRAN	-949
▁Well	-950
▁appl	-951
▁live	-952
▁read	-953
▁term	-954
ecular	-955
plicit	-956
tifies	-957
▁FOAMF	-958
▁LANGM	-959
▁STONE	-960
▁Stone	-961
▁multi	-962
▁wells	-963
alinity	-964
ertical	-965
ocessor	-966
▁corner	-967
▁correl	-968
▁depths	-969
▁radial	-970
ilibrium	-971
▁Initial	-972
▁Permeab	-973
▁contain	-974
▁density	-975
▁example	-976
▁gravity	-977
umulative	-978
▁controls	-979
▁keywords	-980
▁Capillary	-981
▁Identifies	-982
▁Permeability	-983
▁diffusivities	-984
BU	-985
EF	-986
EO	-987
EX	-988
MT	-989
NO	-990
PR	-991
SS	-992
WT	-993
gm	-994
ty	-995
wo	-996
▁y	-997
▁z	-998
AVE	-999
BOX	-1000
ELL	-1001
EMP	-1002
LPC	-1003
MAX	-1004
ack	-1005
ank	-1006
bor	-1007
der	-1008
dex	-1009
hol	-1010
ial	-1011
ick	-1012
ins	-1013
sig	-1014
ula	-1015
▁As	-1016
▁DX	-1017
▁DZ	-1018
▁ED	-1019
▁HS	-1020
▁PV	-1021
▁SC	-1022
▁UN	-1023
▁VE	-1024
IREG	-1025
UNIT	-1026
comp	-1027
ired	-1028
king	-1029
ness	-1030
▁300	-1031
▁ADS	-1032
▁DIS	-1033
▁Flu	-1034
▁LBC	-1035
▁MAX	-1036
▁Pri	-1037
▁Red	-1038
▁Tra	-1039
▁WAT	-1040
▁ent	-1041
▁nam	-1042
▁nod	-1043
▁not	-1044
▁ste	-1045
VTYPE	-1046
hases	-1047
ingle	-1048
iscre	-1049
neigh	-1050
other	-1051
▁Copy	-1052
▁PREF	-1053
▁TREF	-1054
▁foam	-1055
▁pres	-1056
▁tank	-1057
▁upon	-1058
▁user	-1059
factor	-1060
▁FAULT	-1061
▁PERMX	-1062
▁PERMY	-1063
▁PERMZ	-1064
▁Solid	-1065
▁Stock	-1066
▁gradi	-1067
▁units	-1068
pletion	-1069
▁Allows	-1070
▁Copies	-1071
▁MULTIP	-1072
▁phases	-1073
▁single	-1074
neighbor	-1075
▁FOAMMOB	-1076
▁Maximum	-1077
▁Minimum	-1078
▁ORTHERR	-1079
▁Primary	-1080
▁another	-1081
▁control	-1082
▁tracers	-1083
ternative	-1084
▁Activate	-1085
▁Alkaline	-1086
▁MULTIREG	-1087
▁adsorbed	-1088
▁contains	-1089
▁drainage	-1090
▁facility	-1091
▁fracture	-1092
▁reaction	-1093
▁solution	-1094
▁dependent	-1095
▁Surfactant	-1096
▁compaction	-1097
▁interfaces	-1098
▁correlation	-1099
▁calculations	-1100
CY	-1101
DP	-1102
EP	-1103
HY	-1104
OD	-1105
OW	-1106
PL	-1107
UL	-1108
ff	-1109
ge	-1110
ho	-1111
nd	-1112
pr	-1113
vi	-1114
▁x	-1115
ALT	-1116
ART	-1117
BUG	-1118
DCY	-1119
FLT	-1120
ORP	-1121
RAD	-1122
all	-1123
ame	-1124
ane	-1125
ard	-1126
ati	-1127
eld	-1128
eme	-1129
fir	-1130
ics	-1131
kip	-1132
oil	-1133
ole	-1134
ory	-1135
tiz	-1136
und	-1137
upp	-1138
ven	-1139
▁DE	-1140
▁De	-1141
▁Do	-1142
▁Ex	-1143
▁RS	-1144
▁ba	-1145
▁ch	-1146
COMP	-1147
GRID	-1148
PAME	-1149
PCVD	-1150
THET	-1151
ages	-1152
ield	-1153
iven	-1154
ning	-1155
plac	-1156
port	-1157
solv	-1158
▁ALK	-1159
▁BOX	-1160
▁Beg	-1161
▁CON	-1162
▁End	-1163
▁For	-1164
▁GEO	-1165
▁IKR	-1166
▁May	-1167
▁ODD	-1168
▁VFP	-1169
▁VIS	-1170
▁dry	-1171
▁exp	-1172
▁ext	-1173
▁fra	-1174
▁two	-1175
acity	-1176
allel	-1177
atted	-1178
aults	-1179
echan	-1180
efine	-1181
ening	-1182
erent	-1183
ermin	-1184
inary	-1185
ition	-1186
signs	-1187
▁COAL	-1188
▁Conn	-1189
▁Dual	-1190
▁EDIT	-1191
▁ENDS	-1192
▁Flux	-1193
▁GRAV	-1194
▁SKIP	-1195
▁TRAC	-1196
▁UNIF	-1197
▁coal	-1198
▁dead	-1199
▁have	-1200
▁mess	-1201
▁requ	-1202
▁rest	-1203
▁this	-1204
andard	-1205
ulated	-1206
undary	-1207
▁DTHET	-1208
▁MULTX	-1209
▁MULTY	-1210
▁MULTZ	-1211
▁SOLID	-1212
▁alias	-1213
▁apply	-1214
▁basis	-1215
▁decay	-1216
▁fault	-1217
▁given	-1218
▁modif	-1219
▁named	-1220
▁nodes	-1221
▁order	-1222
▁produ	-1223
▁scale	-1224
▁state	-1225
▁thick	-1226
▁weigh	-1227
▁whole	-1228
tabular	-1229
vention	-1230
▁ADDREG	-1231
▁ADSORP	-1232
▁Begins	-1233
▁Confir	-1234
▁FAULTS	-1235
▁SURFST	-1236
▁Switch	-1237
▁Vector	-1238
▁faults	-1239
▁models	-1240
▁ratios	-1241
▁scaled	-1242
▁scheme	-1243
alytical	-1244
echanics	-1245
iscretiz	-1246
▁Assigns	-1247
▁COPYREG	-1248
▁Request	-1249
▁unified	-1250
processor	-1251
▁EQUALREG	-1252
▁MULTIPLY	-1253
▁MULTREGD	-1254
▁MULTREGH	-1255
▁OILVISCT	-1256
▁OPERATER	-1257
▁Porosity	-1258
▁Pressure	-1259
▁Vertical	-1260
▁capacity	-1261
▁fraction	-1262
▁messages	-1263
▁negative	-1264
▁parallel	-1265
▁presence	-1266
▁standard	-1267
▁different	-1268
▁formatted	-1269
▁thickness	-1270
▁Dimensions	-1271
▁convention	-1272
▁definition	-1273
▁hysteresis	-1274
▁imbibition	-1275
▁Transmissib	-1276
▁composition	-1277
▁simulations	-1278
▁geomechanics	-1279
▁interpolation	-1280
CW	-1281
ED	-1282
GD	-1283
IV	-1284
MD	-1285
PF	-1286
PI	-1287
XT	-1288
ph	-1289
tt	-1290
ub	-1291
ARN	-1292
CLE	-1293
COR	-1294
ECT	-1295
EoS	-1296
GEN	-1297
INE	-1298
MEG	-1299
MPS	-1300
NET	-1301
OIL	-1302
ORO	-1303
ORW	-1304
RES	-1305
SEG	-1306
STC	-1307
TAB	-1308
aps	-1309
ass	-1310
ber	-1311
cip	-1312
cle	-1313
ear	-1314
enc	-1315
gmu	-1316
oci	-1317
out	-1318
rov	-1319
▁An	-1320
▁Gi	-1321
▁IK	-1322
▁KR	-1323
▁LX	-1324
▁LY	-1325
▁LZ	-1326
▁Pc	-1327
▁Rv	-1328
▁it	-1329
▁pl	-1330
▁ti	-1331
CORN	-1332
CRIT	-1333
FACT	-1334
FILE	-1335
FINE	-1336
IONS	-1337
NODE	-1338
PAMA	-1339
PERM	-1340
SAVE	-1341
WELL	-1342
ator	-1343
hold	-1344
icen	-1345
ides	-1346
impl	-1347
roup	-1348
soci	-1349
▁API	-1350
▁Dis	-1351
▁Equ	-1352
▁FMT	-1353
▁Gra	-1354
▁KVT	-1355
▁Lan	-1356
▁Mod	-1357
▁Num	-1358
▁PRO	-1359
▁acc	-1360
▁any	-1361
▁can	-1362
▁cir	-1363
▁net	-1364
▁ver	-1365
▁war	-1366
CONST	-1367
IRCLE	-1368
ROCKT	-1369
cipal	-1370
defin	-1371
emory	-1372
etric	-1373
gmuir	-1374
istor	-1375
ports	-1376
ulate	-1377
▁COMP	-1378
▁Comp	-1379
▁DENS	-1380
▁EQLD	-1381
▁INIT	-1382
▁NNCs	-1383
▁OMEG	-1384
▁Prov	-1385
▁Rest	-1386
▁Salt	-1387
▁Save	-1388
▁Supp	-1389
▁devi	-1390
▁must	-1391
▁prin	-1392
▁skip	-1393
▁type	-1394
▁unit	-1395
PAMEPS	-1396
alytic	-1397
ansion	-1398
region	-1399
ulator	-1400
▁HEATT	-1401
▁Index	-1402
▁Local	-1403
▁REACS	-1404
▁Simpl	-1405
▁THCON	-1406
▁ZFACT	-1407
▁being	-1408
▁debug	-1409
▁group	-1410
▁licen	-1411
▁start	-1412
defined	-1413
reshold	-1414
▁CVTYPE	-1415
▁DISGAS	-1416
▁Define	-1417
▁ENDBOX	-1418
▁EQUALS	-1419
▁HMMULT	-1420
▁Number	-1421
▁Output	-1422
▁REFINE	-1423
▁Termin	-1424
▁across	-1425
▁associ	-1426
▁circle	-1427
▁perfor	-1428
▁strain	-1429
▁Connate	-1430
▁DENSITY	-1431
▁ENDSKIP	-1432
▁FOAMDCY	-1433
▁GRAVITY	-1434
▁Imports	-1435
▁MULTFLT	-1436
▁MULTTHT	-1437
▁OPERATE	-1438
▁PLYVISC	-1439
▁SIGMAGD	-1440
▁TPAMEPS	-1441
▁default	-1442
▁formula	-1443
▁version	-1444
▁volumes	-1445
▁warning	-1446
▁Confirms	-1447
▁Critical	-1448
▁Langmuir	-1449
▁MAXVALUE	-1450
▁MINVALUE	-1451
▁MULTREGT	-1452
▁Multiply	-1453
▁Provides	-1454
▁ROCKPAMA	-1455
▁Solution	-1456
▁Suppress	-1457
▁aquifers	-1458
▁boundary	-1459
▁equation	-1460
▁modeling	-1461
▁property	-1462
▁salinity	-1463
analytical	-1464
▁Redefines	-1465
▁deviation	-1466
▁expansion	-1467
▁gradients	-1468
▁gravities	-1469
▁modifiers	-1470
▁molecular	-1471
▁principal	-1472
▁simulator	-1473
▁Cumulative	-1474
▁Simplified	-1475
▁associated	-1476
▁completion	-1477
▁components	-1478
▁production	-1479
▁Equilibrium	-1480
▁Multipliers	-1481
▁Temperature	-1482
32	-1483
EM	-1484
EZ	-1485
IO	-1486
IX	-1487
Ma	-1488
OM	-1489
OS	-1490
PH	-1491
PM	-1492
RS	-1493
SE	-1494
TG	-1495
TS	-1496
py	-1497
ud	-1498
▁/	-1499
100	-1500
ACK	-1501
ACT	-1502
AGE	-1503
APD	-1504
ARY	-1505
DAT	-1506
ELD	-1507
ETR	-1508
EZE	-1509
GRO	-1510
IDS	-1511
INJ	-1512
IOT	-1513
KER	-1514
LOW	-1515
MUL	-1516
ORE	-1517
ORG	-1518
ORT	-1519
ORV	-1520
OUN	-1521
PES	-1522
PFA	-1523
VDR	-1524
WAT	-1525
arg	-1526
ars	-1527
ase	-1528
ble	-1529
ced	-1530
dim	-1531
ead	-1532
eed	-1533
eve	-1534
hal	-1535
ian	-1536
ils	-1537
nso	-1538
off	-1539
oll	-1540
ome	-1541
ont	-1542
ori	-1543
til	-1544
uld	-1545
urn	-1546
uto	-1547
vel	-1548
▁CR	-1549
▁DP	-1550
▁IS	-1551
▁Li	-1552
▁PE	-1553
▁RT	-1554
▁Rs	-1555
▁UD	-1556
▁YZ	-1557
▁ec	-1558
▁fe	-1559
▁if	-1560
▁qu	-1561
ANAL	-1562
CAPD	-1563
CODD	-1564
COEF	-1565
COPY	-1566
CTAB	-1567
HYST	-1568
IELD	-1569
INIT	-1570
PCDT	-1571
PROD	-1572
PTVD	-1573
SURF	-1574
TRAC	-1575
TRAN	-1576
Trac	-1577
WARN	-1578
anti	-1579
apor	-1580
atch	-1581
atur	-1582
back	-1583
edul	-1584
ency	-1585
flow	-1586
hear	-1587
ible	-1588
inch	-1589
lood	-1590
oriz	-1591
pect	-1592
pres	-1593
rett	-1594
rock	-1595
salt	-1596
tire	-1597
vent	-1598
▁AIM	-1599
▁CPR	-1600
▁DRV	-1601
▁EPS	-1602
▁ESS	-1603
▁EXT	-1604
▁IMP	-1605
▁Inc	-1606
▁MAP	-1607
▁Mol	-1608
▁NOC	-1609
▁NTG	-1610
▁OUT	-1611
▁PCW	-1612
▁PVD	-1613
▁Pal	-1614
▁RAD	-1615
▁REG	-1616
▁RES	-1617
▁RUN	-1618
▁TRD	-1619
▁bef	-1620
▁but	-1621
▁dom	-1622
▁fol	-1623
▁lay	-1624
▁may	-1625
▁mid	-1626
▁off	-1627
▁sho	-1628
▁way	-1629
▁zer	-1630
DEBUG	-1631
Manso	-1632
PDIMS	-1633
PROPS	-1634
REEZE	-1635
SPCVD	-1636
Tracy	-1637
astic	-1638
ctive	-1639
halpy	-1640
ifies	-1641
iting	-1642
ocess	-1643
tings	-1644
▁BIOT	-1645
▁Base	-1646
▁Coal	-1647
▁FILE	-1648
▁HYST	-1649
▁KVCR	-1650
▁Leve	-1651
▁MIDS	-1652
▁MPFA	-1653
▁Meth	-1654
▁NODP	-1655
▁Nine	-1656
▁Over	-1657
▁RPTR	-1658
▁SMUL	-1659
▁SOLV	-1660
▁WSEG	-1661
▁aqua	-1662
▁auto	-1663
▁coll	-1664
▁date	-1665
▁mode	-1666
▁over	-1667
▁some	-1668
▁spec	-1669
▁when	-1670
abular	-1671
istory	-1672
lowing	-1673
nsport	-1674
ogical	-1675
pected	-1676
ponent	-1677
solved	-1678
tition	-1679
ummary	-1680
▁COORD	-1681
▁Debug	-1682
▁Gener	-1683
▁HEATV	-1684
▁IMPES	-1685
▁KVTAB	-1686
▁PCODD	-1687
▁PCRIT	-1688
▁RTEMP	-1689
▁Reset	-1690
▁START	-1691
▁coars	-1692
▁flows	-1693
▁grids	-1694
▁limit	-1695
▁match	-1696
▁molar	-1697
▁pinch	-1698
▁print	-1699
▁rates	-1700
▁ratio	-1701
▁satur	-1702
▁steam	-1703
▁terms	-1704
▁until	-1705
▁vapor	-1706
compass	-1707
default	-1708
present	-1709
▁ACTION	-1710
▁ALSURF	-1711
▁DTHETA	-1712
▁FOAMFS	-1713
▁GRAVDR	-1714
▁IMPORT	-1715
▁MULTPV	-1716
▁NOWARN	-1717
▁OUTRAD	-1718
▁Palmer	-1719
▁THANAL	-1720
▁before	-1721
▁binary	-1722
▁comput	-1723
▁domain	-1724
▁entire	-1725
▁extent	-1726
▁limits	-1727
▁memory	-1728
▁produc	-1729
▁quanti	-1730
▁should	-1731
▁switch	-1732
▁tracer	-1733
Function	-1734
Mansoori	-1735
ensional	-1736
▁Disable	-1737
▁ESSNODE	-1738
▁LGRCOPY	-1739
▁Methane	-1740
▁RUNSPEC	-1741
▁Restart	-1742
▁Thermal	-1743
▁UNIFOUT	-1744
▁connate	-1745
▁perform	-1746
▁polymer	-1747
▁process	-1748
▁reading	-1749
▁respect	-1750
▁restart	-1751
▁schedul	-1752
▁solvent	-1753
▁special	-1754
tabulated	-1755
▁Analytic	-1756
▁Endpoint	-1757
▁FILEUNIT	-1758
▁Leverett	-1759
▁Modifies	-1760
▁SURFCAPD	-1761
▁Tracking	-1762
▁WATVISCT	-1763
▁alkaline	-1764
▁enthalpy	-1765
▁explicit	-1766
▁implicit	-1767
▁matching	-1768
▁pinchout	-1769
▁required	-1770
erpolation	-1771
iscretized	-1772
saturation	-1773
▁Generates	-1774
▁Initiates	-1775
▁Molecular	-1776
▁dissolved	-1777
▁encompass	-1778
▁following	-1779
▁parameter	-1780
▁reactions	-1781
▁represent	-1782
▁saturated	-1783
▁threshold	-1784
dimensional	-1785
▁coarsening	-1786
▁conductive	-1787
▁directions	-1788
▁facilities	-1789
▁Alternative	-1790
▁alternative	-1791
▁equilibrium	-1792
▁temperatures	-1793
▁vaporization	-1794
BM	-1795
CF	-1796
CN	-1797
DF	-1798
DZ	-1799
GG	-1800
GL	-1801
GS	-1802
IZ	-1803
JU	-1804
KV	-1805
LA	-1806
MC	-1807
NN	-1808
PA	-1809
RX	-1810
Tn	-1811
VC	-1812
WR	-1813
ZG	-1814
ak	-1815
hn	-1816
ix	-1817
op	-1818
te	-1819
ALE	-1820
ALF	-1821
ALL	-1822
ALS	-1823
ARP	-1824
ATH	-1825
BAS	-1826
CHO	-1827
CLU	-1828
DEN	-1829
DIV	-1830
EWT	-1831
FUN	-1832
GRW	-1833
HMD	-1834
ICD	-1835
ILL	-1836
IRS	-1837
LAN	-1838
LDT	-1839
MAT	-1840
NNC	-1841
ODD	-1842
OPS	-1843
ORS	-1844
ORY	-1845
PCW	-1846
POL	-1847
PTH	-1848
RAM	-1849
SEN	-1850
SIM	-1851
TOB	-1852
UAL	-1853
UIR	-1854
WRG	-1855
WRO	-1856
ash	-1857
asy	-1858
bur	-1859
cri	-1860
eal	-1861
ene	-1862
eng	-1863
eol	-1864
ign	-1865
iom	-1866
iot	-1867
iss	-1868
ite	-1869
ivi	-1870
kev	-1871
mod	-1872
nal	-1873
ork	-1874
oun	-1875
ply	-1876
rod	-1877
sed	-1878
udi	-1879
wet	-1880
▁BA	-1881
▁BL	-1882
▁CG	-1883
▁GD	-1884
▁GI	-1885
▁Kw	-1886
▁LT	-1887
▁MW	-1888
▁No	-1889
▁RV	-1890
▁Sp	-1891
▁XY	-1892
▁ZX	-1893
▁ab	-1894
▁dr	-1895
▁ed	-1896
▁et	-1897
▁le	-1898
▁ri	-1899
▁vs	-1900
▁wr	-1901
ADJU	-1902
ATES	-1903
AXES	-1904
CHED	-1905
DARY	-1906
ENTH	-1907
INJE	-1908
ITLE	-1909
KVCR	-1910
MTRX	-1911
ODEL	-1912
ONIT	-1913
PORO	-1914
PORV	-1915
PRES	-1916
PROC	-1917
PSAT	-1918
RACT	-1919
REAC	-1920
SOLV	-1921
STAB	-1922
VTIM	-1923
WTAB	-1924
ZFIN	-1925
aker	-1926
alor	-1927
ames	-1928
ance	-1929
arac	-1930
arge	-1931
assi	-1932
atil	-1933
dead	-1934
dens	-1935
eeds	-1936
eloc	-1937
ensi	-1938
ered	-1939
ffec	-1940
gree	-1941
grid	-1942
ices	-1943
iffu	-1944
ific	-1945
irst	-1946
itor	-1947
ment	-1948
offe	-1949
oich	-1950
ored	-1951
ping	-1952
quid	-1953
scal	-1954
segm	-1955
tend	-1956
time	-1957
usts	-1958
vels	-1959
▁ACF	-1960
▁AUT	-1961
▁BIC	-1962
▁Bed	-1963
▁CAL	-1964
▁CCT	-1965
▁COL	-1966
▁Car	-1967
▁Com	-1968
▁DIM	-1969
▁DXV	-1970
▁DYV	-1971
▁Des	-1972
▁FOR	-1973
▁HMD	-1974
▁IKU	-1975
▁INT	-1976
▁Int	-1977
▁KRO	-1978
▁LAB	-1979
▁LUM	-1980
▁MEM	-1981
▁NCO	-1982
▁NIN	-1983
▁NOM	-1984
▁NRS	-1985
▁OPT	-1986
▁Ped	-1987
▁Pet	-1988
▁RSM	-1989
▁SAT	-1990
▁SGF	-1991
▁SOF	-1992
▁SOM	-1993
▁SWF	-1994
▁THC	-1995
▁UDQ	-1996
▁WAG	-1997
▁WEL	-1998
▁Zud	-1999
▁bub	-2000
▁cut	-2001
▁det	-2002
▁dim	-2003
▁dur	-2004
▁ign	-2005
▁loc	-2006
▁map	-2007
▁mix	-2008
▁mon	-2009
▁pat	-2010
▁sub	-2011
▁sup	-2012
▁vol	-2013
ANCON	-2014
BASIS	-2015
CLUDE	-2016
COREF	-2017
CROCK	-2018
DTYPE	-2019
DZNET	-2020
ECTOR	-2021
ETRIC	-2022
HYSTR	-2023
PARAM	-2024
PFLOW	-2025
RDIMS	-2026
STORE	-2027
TRANZ	-2028
VDIRS	-2029
VISCF	-2030
WELLS	-2031
ZCORN	-2032
apsed	-2033
artes	-2034
colum	-2035
dient	-2036
ength	-2037
enter	-2038
ersen	-2039
gross	-2040
itial	-2041
ontal	-2042
phalt	-2043
rides	-2044
solve	-2045
udies	-2046
▁100.	-2047
▁300.	-2048
▁AQUF	-2049
▁BOUN	-2050
▁BTOB	-2051
▁Biot	-2052
▁CONN	-2053
▁CRIT	-2054
▁Calc	-2055
▁DUAL	-2056
▁Deta	-2057
▁ENKR	-2058
▁GCON	-2059
▁GEOM	-2060
▁Geom	-2061
▁ISOL	-2062
▁JALS	-2063
▁JFUN	-2064
▁LTOS	-2065
▁MLAN	-2066
▁NEWT	-2067
▁NINE	-2068
▁NMAT	-2069
▁NOHY	-2070
▁OLDT	-2071
▁PDIV	-2072
▁PMAX	-2073
▁PORO	-2074
▁PSPL	-2075
▁PVCO	-2076
▁PVDO	-2077
▁PVTG	-2078
▁PVTO	-2079
▁PVTW	-2080
▁PVZG	-2081
▁Reac	-2082
▁SALT	-2083
▁SGOF	-2084
▁SWAT	-2085
▁SWOF	-2086
▁TOPS	-2087
▁Turn	-2088
▁VFEP	-2089
▁WARP	-2090
▁WCON	-2091
▁WELL	-2092
▁XSTC	-2093
▁YSTC	-2094
▁chan	-2095
▁chec	-2096
▁diag	-2097
▁divi	-2098
▁easy	-2099
▁echo	-2100
▁geol	-2101
▁head	-2102
▁iter	-2103
▁maps	-2104
▁same	-2105
▁sets	-2106
▁step	-2107
▁time	-2108
▁vary	-2109
ACKOIL	-2110
ADJUST	-2111
CONSTT	-2112
POLADS	-2113
assive	-2114
burden	-2115
column	-2116
hanced	-2117
illing	-2118
ording	-2119
otherm	-2120
phical	-2121
tended	-2122
ternal	-2123
▁AQUCT	-2124
▁Acent	-2125
▁Alias	-2126
▁BAKER	-2127
▁Baker	-2128
▁COMPS	-2129
▁DATES	-2130
▁DEBUG	-2131
▁DEPTH	-2132
▁DIFFU	-2133
▁DPCDT	-2134
▁DREFS	-2135
▁DRILL	-2136
▁DZNET	-2137
▁Diffu	-2138
▁Effec	-2139
▁FIELD	-2140
▁Field	-2141
▁Flood	-2142
▁Inclu	-2143
▁Joffe	-2144
▁KVGEN	-2145
▁MINPV	-2146
▁MULTR	-2147
▁Multi	-2148
▁NOSIM	-2149
▁NPROC	-2150
▁OMEGA	-2151
▁PREFS	-2152
▁PROPS	-2153
▁REACT	-2154
▁ROCKV	-2155
▁SGLPC	-2156
▁SWLPC	-2157
▁Shear	-2158
▁THERM	-2159
▁TITLE	-2160
▁TRDIF	-2161
▁TREFS	-2162
▁WATER	-2163
▁ZCORN	-2164
▁calor	-2165
▁enter	-2166
▁extra	-2167
▁field	-2168
▁first	-2169
▁flash	-2170
▁horiz	-2171
▁index	-2172
▁large	-2173
▁mater	-2174
▁plane	-2175
▁sensi	-2176
▁veloc	-2177
▁write	-2178
ECLIPSE	-2179
REEZEPC	-2180
aracter	-2181
atility	-2182
defines	-2183
elastic	-2184
iscible	-2185
itoring	-2186
kevitch	-2187
oichiom	-2188
osities	-2189
segment	-2190
solvent	-2191
structs	-2192
ticular	-2193
ulating	-2194
▁ACTNUM	-2195
▁ALKADS	-2196
▁AQUCON	-2197
▁AQUNUM	-2198
▁Binary	-2199
▁CALVAL	-2200
▁CCTYPE	-2201
▁CIRCLE	-2202
▁Carter	-2203
▁Cartes	-2204
▁DIFFMR	-2205
▁DIFFMX	-2206
▁DIFFMY	-2207
▁DIFFMZ	-2208
▁DIMENS	-2209
▁DZMTRX	-2210
▁Descri	-2211
▁EHYSTR	-2212
▁ENDFIN	-2213
▁FMTOUT	-2214
▁GASSOL	-2215
▁HEATCR	-2216
▁HEATVA	-2217
▁IMPSAT	-2218
▁METRIC	-2219
▁MULTMF	-2220
▁MULTXY	-2221
▁MULTYY	-2222
▁MULTZZ	-2223
▁NCOMPS	-2224
▁NNCGEN	-2225
▁NODPPM	-2226
▁OMEGAB	-2227
▁PCRITS	-2228
▁PERMMF	-2229
▁PERMXX	-2230
▁PERMXY	-2231
▁PERMYY	-2232
▁PERMYZ	-2233
▁PERMZX	-2234
▁PERMZZ	-2235
▁PVTNUM	-2236
▁RADFIN	-2237
▁RPTRUN	-2238
▁SIGMAV	-2239
▁SOLIDM	-2240
▁SPECHS	-2241
▁SPECHT	-2242
▁SPECHW	-2243
▁STONEL	-2244
▁Speeds	-2245
▁TBASIS	-2246
▁THCONR	-2247
▁THPRES	-2248
▁TRACER	-2249
▁VISAGE	-2250
▁bubble	-2251
▁center	-2252
▁decomp	-2253
▁degree	-2254
▁during	-2255
▁incomp	-2256
▁layers	-2257
▁length	-2258
▁levels	-2259
▁licens	-2260
▁liquid	-2261
▁points	-2262
▁radius	-2263
▁reduce	-2264
▁sector	-2265
▁stress	-2266
▁supply	-2267
▁weight	-2268
▁zeroth	-2269
modified	-2270
ocessors	-2271
phaltene	-2272
porosity	-2273
titioned	-2274
▁ALKROCK	-2275
▁AQUDIMS	-2276
▁COALNUM	-2277
▁COPYBOX	-2278
▁CVTYPES	-2279
▁DIFFMMF	-2280
▁DIFFMTH	-2281
▁DTHETAV	-2282
▁Details	-2283
▁ENSPCVD	-2284
▁EQLDIMS	-2285
▁FLUXREG	-2286
▁FOAMADS	-2287
▁FOAMFCN	-2288
▁GADJUST	-2289
▁Gravity	-2290
▁HMMROCK	-2291
▁HMPROPS	-2292
▁HMROCKT	-2293
▁History	-2294
▁INCLUDE	-2295
▁ISOLNUM	-2296
▁LANGMPL	-2297
▁LBCCOEF	-2298
▁MAPAXES	-2299
▁MINPORV	-2300
▁MULTOUT	-2301
▁NEWTRAN	-2302
▁OILVTIM	-2303
▁OLDTRAN	-2304
▁Outputs	-2305
▁Paramet	-2306
▁REGIONS	-2307
▁ROCKCON	-2308
▁RPTGRID	-2309
▁RPTINIT	-2310
▁Section	-2311
▁Selects	-2312
▁Summary	-2313
▁Surface	-2314
▁VEDEBUG	-2315
▁applied	-2316
▁aqueous	-2317
▁compute	-2318
▁condens	-2319
▁displac	-2320
▁equilib	-2321
▁factors	-2322
▁feature	-2323
▁gaseous	-2324
▁heading	-2325
▁ignored	-2326
▁initial	-2327
▁license	-2328
▁passive	-2329
▁printed	-2330
▁specify	-2331
▁studies	-2332
▁tabular	-2333
▁typical	-2334
▁viscous	-2335
▁weights	-2336
ctivities	-2337
▁ALPOLADS	-2338
▁ALSURFAD	-2339
▁AQUANCON	-2340
▁Acentric	-2341
▁BIOTCTAB	-2342
▁BLACKOIL	-2343
▁BOUNDARY	-2344
▁CRITPERM	-2345
▁Drainage	-2346
▁EQLDKVCR	-2347
▁EQLDREAC	-2348
▁Exponent	-2349
▁Extended	-2350
▁FOAMDCYO	-2351
▁FOAMDCYW	-2352
▁FOAMMOBS	-2353
▁FOAMOPTS	-2354
▁FOAMROCK	-2355
▁FREEZEPC	-2356
▁GRIDFILE	-2357
▁Geometry	-2358
▁Gradient	-2359
▁HMMROCKT	-2360
▁HMMULTPV	-2361
▁LANGMUIR	-2362
▁LTOSIGMA	-2363
▁MAXTRANZ	-2364
▁MINDZNET	-2365
▁MULTREGP	-2366
▁NOCIRCLE	-2367
▁ORTHERRO	-2368
▁ORTHERRX	-2369
▁ORTHERRY	-2370
▁ORTHERRZ	-2371
▁PERMSTAB	-2372
▁PINCHNUM	-2373
▁PINCHREG	-2374
▁PLYVISCS	-2375
▁PROPFLOW	-2376
▁Pedersen	-2377
▁REACENTH	-2378
▁REACSMAX	-2379
▁REACSORD	-2380
▁Required	-2381
▁SIGMAGDV	-2382
▁SOLVDIMS	-2383
▁SOLVDIRS	-2384
▁SURFSTES	-2385
▁Salinity	-2386
▁VISCOREF	-2387
▁WELLDIMS	-2388
▁contents	-2389
▁diagonal	-2390
▁dissolve	-2391
▁division	-2392
▁drilling	-2393
▁enhanced	-2394
▁expected	-2395
▁external	-2396
▁flowback	-2397
▁gradient	-2398
▁internal	-2399
▁isotherm	-2400
▁limiting	-2401
▁material	-2402
▁optional	-2403
▁quantity	-2404
▁residual	-2405
▁schedule	-2406
▁settings	-2407
▁skipping	-2408
▁switches	-2409
▁tensions	-2410
▁velocity	-2411
▁vertical	-2412
▁Calculate	-2413
▁Cartesian	-2414
▁Effective	-2415
▁Instructs	-2416
▁Overrides	-2417
▁Stoichiom	-2418
▁Terminate	-2419
▁according	-2420
▁calculate	-2421
▁calorific	-2422
▁character	-2423
▁collapsed	-2424
▁dimension	-2425
▁discretiz	-2426
▁graphical	-2427
▁transport	-2428
temperature	-2429
▁Completion	-2430
▁Parameters	-2431
▁Saturation	-2432
▁Terminates	-2433
▁Zudkevitch	-2434
▁asphaltene	-2435
▁calculated	-2436
▁cumulative	-2437
▁geological	-2438
▁monitoring	-2439
▁particular	-2440
▁processors	-2441
▁volatility	-2442
▁Composition	-2443
▁Description	-2444
▁Discretized	-2445
▁calculating	-2446
▁directional	-2447
▁interaction	-2448
▁partitioned	-2449
▁performance	-2450
▁refinements	-2451
▁Temperatures	-2452
▁displacement	-2453
▁multisegment	-2454
▁Interpolation	-2455
▁decomposition	-2456
▁equilibration	-2457
▁specification	-2458
▁Initialization	-2459
▁Stoichiometric	-2460
▁conductivities	-2461
▁discretization	-2462
▁representative	-2463
,,	-2464
..	-2465
2.	-2466
BI	-2467
CB	-2468
CD	-2469
CG	-2470
CI	-2471
Cn	-2472
DB	-2473
DR	-2474
DX	-2475
EC	-2476
EW	-2477
FM	-2478
FT	-2479
GE	-2480
GI	-2481
HD	-2482
HE	-2483
HP	-2484
IW	-2485
IY	-2486
JG	-2487
KT	-2488
LG	-2489
LI	-2490
LO	-2491
LV	-2492
MW	-2493
ND	-2494
NS	-2495
NT	-2496
Ne	-2497
PG	-2498
PP	-2499
.)	-2500
HA	-2501
MS	-2502
PW	-2503
RD	-2504
RI	-2505
RM	-2506
Rs	-2507
SF	-2508
SG	-2509
SI	-2510
SP	-2511
UP	-2512
WI	-2513
WL	-2514
WW	-2515
XX	-2516
XY	-2517
YL	-2518
YM	-2519
YS	-2520
YZ	-2521
bt	-2522
co	-2523
ct	-2524
dr	-2525
gh	-2526
gy	-2527
ia	-2528
ks	-2529
la	-2530
nu	-2531
ok	-2532
pp	-2533
so	-2534
tc	-2535
wt	-2536
xx	-2537
yn	-2538
ze	-2539
▁0	-2540
▁3	-2541
▁Q	-2542
▁i	-2543
ABG	-2544
ACR	-2545
ADD	-2546
AIM	-2547
AIN	-2548
ALG	-2549
AMG	-2550
AQU	-2551
ARB	-2552
ASC	-2553
ATE	-2554
COD	-2555
CRS	-2556
DEP	-2557
DIS	-2558
EAD	-2559
ECH	-2560
ENT	-2561
EPO	-2562
ERF	-2563
ETP	-2564
ETW	-2565
EXT	-2566
EXZ	-2567
GGF	-2568
GRG	-2569
IAL	-2570
IFT	-2571
IMP	-2572
IMT	-2573
INC	-2574
ING	-2575
INK	-2576
INO	-2577
INT	-2578
ISS	-2579
IST	-2580
ITX	-2581
KRM	-2582
LGR	-2583
LTH	-2584
LXT	-2585
MFE	-2586
MTH	-2587
NAM	-2588
NEW	-2589
NHD	-2590
OAR	-2591
ONE	-2592
ONR	-2593
ORB	-2594
ORI	-2595
ORK	-2596
OSS	-2597
OST	-2598
OWS	-2599
ACE	-2600
CIB	-2601
ESS	-2602
KRV	-2603
LRG	-2604
PCG	-2605
PGL	-2606
PMS	-2607
PSE	-2608
QCT	-2609
QUN	-2610
RIX	-2611
SAT	-2612
SEF	-2613
SSF	-2614
TAS	-2615
ULC	-2616
ULE	-2617
UMM	-2618
UNC	-2619
UNE	-2620
UPC	-2621
URE	-2622
VER	-2623
VIN	-2624
VST	-2625
WVC	-2626
XTH	-2627
act	-2628
ady	-2629
alf	-2630
alg	-2631
any	-2632
arb	-2633
ast	-2634
ats	-2635
ays	-2636
bin	-2637
bra	-2638
cre	-2639
cur	-2640
ded	-2641
dep	-2642
des	-2643
eam	-2644
eft	-2645
ert	-2646
ete	-2647
ets	-2648
flu	-2649
gor	-2650
gum	-2651
hom	-2652
hor	-2653
ift	-2654
ike	-2655
ile	-2656
loc	-2657
mes	-2658
mit	-2659
nge	-2660
ngi	-2661
nit	-2662
not	-2663
oma	-2664
ons	-2665
ood	-2666
ost	-2667
ote	-2668
our	-2669
ows	-2670
pth	-2671
pti	-2672
sum	-2673
teg	-2674
tiv	-2675
tle	-2676
uce	-2677
ugh	-2678
urv	-2679
uts	-2680
vir	-2681
wWL	-2682
war	-2683
▁1.	-2684
▁2-	-2685
▁AM	-2686
▁AS	-2687
▁BO	-2688
▁BR	-2689
▁Bo	-2690
▁By	-2691
▁DI	-2692
▁Fr	-2693
▁HX	-2694
▁Ke	-2695
▁LC	-2696
▁NY	-2697
▁PI	-2698
▁PO	-2699
EFF	-2700
NOD	-2701
RMD	-2702
ULL	-2703
WTF	-2704
▁Pe	-2705
▁Po	-2706
▁Pr	-2707
▁SD	-2708
▁SK	-2709
▁SP	-2710
▁Sg	-2711
▁TZ	-2712
▁Up	-2713
▁XZ	-2714
▁af	-2715
▁am	-2716
▁bl	-2717
▁br	-2718
▁em	-2719
▁he	-2720
▁hy	-2721
▁lo	-2722
▁ma	-2723
▁no	-2724
▁se	-2725
ADDW	-2726
AGES	-2727
ALEL	-2728
ALFA	-2729
ALFV	-2730
ALTE	-2731
ATER	-2732
COAL	-2733
COIL	-2734
CONS	-2735
CORD	-2736
CREF	-2737
CTLI	-2738
DATA	-2739
DFLT	-2740
DISP	-2741
DSYS	-2742
Dual	-2743
EADY	-2744
EDER	-2745
EOIL	-2746
ERMX	-2747
FRAC	-2748
GLPC	-2749
GMOD	-2750
GSLV	-2751
HALT	-2752
ILIM	-2753
ILLE	-2754
IMPR	-2755
ISOL	-2756
ITVD	-2757
KERP	-2758
LOOD	-2759
LXTF	-2760
MFVD	-2761
NNCR	-2762
Newt	-2763
OCRS	-2764
ONNC	-2765
OREF	-2766
ORIZ	-2767
OWCR	-2768
PCVT	-2769
PHAT	-2770
PORD	-2771
PROP	-2772
PTVT	-2773
RAIN	-2774
REAL	-2775
REGT	-2776
RESS	-2777
RFIN	-2778
RREF	-2779
Real	-2780
SEAL	-2781
SEGS	-2782
SICD	-2783
SION	-2784
SKIP	-2785
STEP	-2786
UMNS	-2787
VNUM	-2788
WLPC	-2789
agra	-2790
amic	-2791
ange	-2792
apse	-2793
arts	-2794
aset	-2795
atib	-2796
atus	-2797
bore	-2798
droc	-2799
PHA	-2800
udo	-2801
100,	-2802
ATHS	-2803
CALE	-2804
CLMC	-2805
ETRY	-2806
TABB	-2807
UMPF	-2808
ecla	-2809
ects	-2810
eler	-2811
elet	-2812
elow	-2813
erve	-2814
etri	-2815
feed	-2816
form	-2817
geth	-2818
ging	-2819
hole	-2820
ient	-2821
igin	-2822
illo	-2823
ines	-2824
ints	-2825
irem	-2826
ires	-2827
ited	-2828
ithm	-2829
itle	-2830
izes	-2831
kips	-2832
ling	-2833
misc	-2834
name	-2835
ners	-2836
oded	-2837
ogen	-2838
omic	-2839
oung	-2840
ptim	-2841
ring	-2842
sent	-2843
sequ	-2844
sign	-2845
sist	-2846
stra	-2847
ther	-2848
tial	-2849
tics	-2850
tinu	-2851
ttom	-2852
turn	-2853
uces	-2854
ully	-2855
ults	-2856
ulus	-2857
urns	-2858
uter	-2859
vely	-2860
verg	-2861
very	-2862
well	-2863
▁AJG	-2864
▁Add	-2865
▁Aqu	-2866
▁Aut	-2867
▁BGG	-2868
▁CAR	-2869
▁CBM	-2870
▁CRO	-2871
▁CVD	-2872
▁DOM	-2873
▁DYN	-2874
▁DZV	-2875
▁Dyn	-2876
▁EOR	-2877
▁EOS	-2878
▁FIP	-2879
▁Fri	-2880
▁GET	-2881
▁GIM	-2882
▁GPT	-2883
▁INJ	-2884
▁ION	-2885
▁Ins	-2886
▁KRW	-2887
▁KWT	-2888
▁LAG	-2889
▁LIC	-2890
▁LIV	-2891
▁Lab	-2892
▁Lim	-2893
▁Low	-2894
▁MIS	-2895
▁MPF	-2896
▁MWS	-2897
▁NOD	-2898
▁NOE	-2899
CBM	-2900
SVC	-2901
tep	-2902
DENT	-2903
NNCT	-2904
Prod	-2905
echn	-2906
▁BHP	-2907
▁NOF	-2908
▁NST	-2909
▁NUM	-2910
▁Net	-2911
▁PAR	-2912
▁PET	-2913
▁POL	-2914
▁PST	-2915
▁Par	-2916
▁Pse	-2917
▁RIV	-2918
▁RKT	-2919
▁Rel	-2920
▁Run	-2921
▁SCF	-2922
▁SGL	-2923
▁STH	-2924
▁STO	-2925
▁TAB	-2926
▁TCB	-2927
▁TEM	-2928
▁TOL	-2929
▁Top	-2930
▁Tre	-2931
▁Two	-2932
▁UDA	-2933
▁VAP	-2934
▁VEL	-2935
▁bed	-2936
▁dam	-2937
▁dev	-2938
▁etc	-2939
▁few	-2940
▁fur	-2941
▁how	-2942
▁its	-2943
▁key	-2944
▁per	-2945
▁por	-2946
▁seg	-2947
▁sel	-2948
▁top	-2949
▁tre	-2950
▁tri	-2951
▁tun	-2952
▁upd	-2953
▁wet	-2954
▁wri	-2955
300).	-2956
ADOIL	-2957
ALINE	-2958
ALLEL	-2959
ALNOD	-2960
ARSEN	-2961
ATEMP	-2962
CGRID	-2963
CIBLE	-2964
COMPR	-2965
CTION	-2966
DFLTS	-2967
DFRAC	-2968
ECTBC	-2969
ENSES	-2970
FIELD	-2971
GROUP	-2972
GSOLV	-2973
KRVVD	-2974
LAPSE	-2975
LTHEX	-2976
MOBIL	-2977
MOPTS	-2978
MTHMD	-2979
NAMES	-2980
Names	-2981
OCARB	-2982
ONITO	-2983
OREAC	-2984
PERSE	-2985
RMDIR	-2986
ROCKV	-2987
RREGT	-2988
SCHED	-2989
SOLID	-2990
SPECH	-2991
SPECS	-2992
UNITS	-2993
UTION	-2994
VERBU	-2995
VISCC	-2996
adsor	-2997
aging	-2998
ained	-2999
CDO	-3000
SHE	-3001
ght	-3002
DBGS	-3003
LGOF	-3004
LIFT	-3005
LRGT	-3006
NOSI	-3007
PING	-3008
YLDF	-3009
YMER	-3010
rect	-3011
▁FRI	-3012
▁MSG	-3013
▁PCG	-3014
▁ion	-3015
▁obt	-3016
▁via	-3017
ALGAM	-3018
DTUNE	-3019
INODE	-3020
KRMOD	-3021
LAQUN	-3022
MFEED	-3023
NDENS	-3024
OCOAR	-3025
RADNT	-3026
RAPMS	-3027
REPGL	-3028
SHEAR	-3029
UPCOL	-3030
algam	-3031
allow	-3032
andat	-3033
anded	-3034
arbon	-3035
argon	-3036
duced	-3037
ected	-3038
eight	-3039
flood	-3040
hname	-3041
hortc	-3042
idual	-3043
ilson	-3044
inate	-3045
iscus	-3046
isson	-3047
ither	-3048
local	-3049
ngian	-3050
onian	-3051
orpor	-3052
place	-3053
ppant	-3054
reeze	-3055
ricts	-3056
solid	-3057
stead	-3058
tants	-3059
thick	-3060
tinue	-3061
usted	-3062
vious	-3063
wards	-3064
▁100)	-3065
▁ACFS	-3066
▁ASPH	-3067
▁BICS	-3068
▁BIGM	-3069
▁CART	-3070
▁COOR	-3071
▁COPS	-3072
▁CREF	-3073
▁Curv	-3074
▁DIAG	-3075
▁Dead	-3076
▁ECHO	-3077
▁EDFM	-3078
▁EOSS	-3079
▁EXTH	-3080
▁Each	-3081
▁Ends	-3082
▁FAST	-3083
▁Form	-3084
▁GRAF	-3085
▁GREF	-3086
▁HALF	-3087
▁HIST	-3088
▁HYDR	-3089
▁HYKR	-3090
▁HYPC	-3091
▁IKRG	-3092
▁IKRO	-3093
▁IKRW	-3094
▁IPCG	-3095
▁IPCW	-3096
▁KRGR	-3097
▁KRWR	-3098
▁KVMF	-3099
VINDX	-3100
VSTRG	-3101
braic	-3102
plete	-3103
sumes	-3104
viron	-3105
▁BGGI	-3106
▁BOGI	-3107
▁FULL	-3108
▁KVWI	-3109
▁LGRs	-3110
▁LINK	-3111
▁LOWS	-3112
▁MESS	-3113
▁Mess	-3114
▁Must	-3115
▁NETW	-3116
▁NNEW	-3117
▁NOIN	-3118
▁NORS	-3119
▁Netw	-3120
▁Note	-3121
▁PART	-3122
▁PEBI	-3123
▁PIMT	-3124
▁PORV	-3125
▁PPCW	-3126
▁PVDG	-3127
▁PVIW	-3128
▁Pore	-3129
▁Prod	-3130
▁SAMG	-3131
▁SAVE	-3132
▁SCDP	-3133
▁SGCR	-3134
▁SGEN	-3135
▁SIGM	-3136
▁SUMM	-3137
▁SWEN	-3138
▁Same	-3139
▁Serv	-3140
▁SwWL	-3141
▁THCW	-3142
▁THEF	-3143
▁TRPL	-3144
▁This	-3145
▁USEF	-3146
▁Unit	-3147
▁Used	-3148
▁WARN	-3149
▁YOUN	-3150
▁alge	-3151
▁also	-3152
▁area	-3153
▁aver	-3154
▁back	-3155
▁both	-3156
▁chem	-3157
▁cost	-3158
▁days	-3159
▁econ	-3160
▁ener	-3161
▁exch	-3162
▁face	-3163
▁fast	-3164
▁four	-3165
▁half	-3166
▁host	-3167
▁left	-3168
▁lift	-3169
▁look	-3170
▁main	-3171
▁many	-3172
▁marg	-3173
▁mass	-3174
▁miss	-3175
▁mole	-3176
▁more	-3177
▁most	-3178
▁near	-3179
▁omit	-3180
▁part	-3181
▁reac	-3182
▁reco	-3183
▁rows	-3184
▁salt	-3185
▁scre	-3186
▁seal	-3187
▁stab	-3188
▁stop	-3189
▁stor	-3190
▁supp	-3191
▁targ	-3192
▁than	-3193
▁thin	-3194
▁will	-3195
▁work	-3196
▁zero	-3197
ACRATE	-3198
AIMLGR	-3199
ALECRS	-3200
ALELIM	-3201
AQUNUM	-3202
CODHMD	-3203
CTABLE	-3204
DATABG	-3205
ECTION	-3206
EPOINT	-3207
ERFACE	-3208
ILLEPS	-3209
IPSTAB	-3210
ISSONR	-3211
ONITOR	-3212
ORIENT	-3213
ORIZON	-3214
RACTVD	-3215
SSFLOW	-3216
VALUES	-3217
WTABTn	-3218
alysis	-3219
aneous	-3220
atible	-3221
bedded	-3222
ctions	-3223
depend	-3224
ectors	-3225
eleted	-3226
ermine	-3227
etries	-3228
gether	-3229
istics	-3230
locate	-3231
mental	-3232
mented	-3233
mestep	-3234
metric	-3235
olumns	-3236
placed	-3237
places	-3238
polate	-3239
ptions	-3240
ressed	-3241
ricted	-3242
scalar	-3243
sivity	-3244
specif	-3245
tivate	-3246
ulting	-3247
vector	-3248
verity	-3249
▁300).	-3250
▁ACTCO	-3251
▁AMFVD	-3252
▁BIOTC	-3253
▁BRINE	-3254
▁COMPW	-3255
▁Cater	-3256
▁DIFEC	-3257
▁DIFFR	-3258
▁DIFFX	-3259
▁DIFFY	-3260
▁DIFFZ	-3261
▁DPNUM	-3262
▁DRAIN	-3263
▁DREFT	-3264
▁DUMPF	-3265
▁Decla	-3266
▁Depth	-3267
▁ECLMC	-3268
▁EQUIL	-3269
▁FLOOD	-3270
▁FMTIN	-3271
▁FRACT	-3272
▁Fluid	-3273
▁Front	-3274
▁Fully	-3275
▁GDIMS	-3276
▁GIALL	-3277
▁HRFIN	-3278
▁HSGRO	-3279
▁HSGRW	-3280
▁HSORG	-3281
▁HSORW	-3282
▁HSWRG	-3283
▁HSWRO	-3284
▁HXFIN	-3285
▁HYFIN	-3286
▁HYSTJ	-3287
▁HYSTK	-3288
▁HZFIN	-3289
▁Horiz	-3290
▁IKRGR	-3291
▁IKRWR	-3292
▁INRAD	-3293
▁INTEG	-3294
▁ISGAS	-3295
▁JFUNC	-3296
▁KRORW	-3297
▁KVCRS	-3298
▁Killo	-3299
▁LILIM	-3300
▁Lagra	-3301
▁MLANG	-3302
▁NOGGF	-3303
▁NOMIX	-3304
▁NONNC	-3305
▁NYFIN	-3306
▁NZFIN	-3307
▁Names	-3308
▁OILMW	-3309
▁Optim	-3310
▁PATHS	-3311
▁PDIVX	-3312
▁PDIVY	-3313
▁PEDER	-3314
▁PERMR	-3315
▁PREFT	-3316
▁PSGRO	-3317
▁PSGRW	-3318
▁PSORG	-3319
▁PSORW	-3320
▁PSSAT	-3321
▁PSWRG	-3322
▁PSWRO	-3323
▁PVCDO	-3324
▁Petro	-3325
▁Point	-3326
▁Print	-3327
▁SCHED	-3328
▁SCREF	-3329
▁SDREF	-3330
▁SLGOF	-3331
▁SOCRS	-3332
▁SOLWW	-3333
▁SOWCR	-3334
▁SPREF	-3335
▁STREF	-3336
▁Skips	-3337
▁Start	-3338
▁Steam	-3339
▁THSVC	-3340
▁THWVC	-3341
▁TRACK	-3342
▁TRANR	-3343
▁TRANX	-3344
▁TRANY	-3345
▁TRANZ	-3346
▁TRDCY	-3347
▁TRDIS	-3348
▁TREFT	-3349
▁TRNHD	-3350
▁TSTEP	-3351
▁TZONE	-3352
▁Techn	-3353
▁Title	-3354
▁Turns	-3355
▁VEFIN	-3356
▁Volum	-3357
▁WCOMP	-3358
▁Young	-3359
▁about	-3360
▁activ	-3361
▁after	-3362
▁algor	-3363
▁alike	-3364
▁areas	-3365
▁argum	-3366
▁below	-3367
▁black	-3368
▁brine	-3369
▁coord	-3370
▁cross	-3371
▁evalu	-3372
▁faces	-3373
▁fired	-3374
▁flood	-3375
▁influ	-3376
▁inner	-3377
▁integ	-3378
▁layer	-3379
▁lines	-3380
▁names	-3381
▁nodal	-3382
▁outer	-3383
▁plant	-3384
▁predi	-3385
▁range	-3386
▁right	-3387
▁river	-3388
▁shear	-3389
▁solve	-3390
▁stack	-3391
▁steps	-3392
▁title	-3393
▁types	-3394
▁under	-3395
▁unenc	-3396
▁yield	-3397
Applies	-3398
OPTIONS	-3399
VERBURD	-3400
atively	-3401
current	-3402
factors	-3403
homogen	-3404
ication	-3405
icative	-3406
iscrete	-3407
ounting	-3408
ression	-3409
scaling	-3410
sequent	-3411
ternate	-3412
tically	-3413
▁ALPHAT	-3414
▁AQUQCT	-3415
▁AQUTAB	-3416
▁AQUUNC	-3417
▁Automa	-3418
▁CARFIN	-3419
▁CNAMES	-3420
▁COALPP	-3421
▁DIFFDP	-3422
▁DOMAIN	-3423
▁DPGRID	-3424
▁DREFTS	-3425
▁ENDINC	-3426
▁ENKRVD	-3427
▁ENKRVT	-3428
▁ENPCVD	-3429
▁ENPCVT	-3430
▁ENPTVD	-3431
▁ENPTVT	-3432
▁EPSODD	-3433
▁EXTFIN	-3434
▁FACTLI	-3435
▁FIPNUM	-3436
▁FMTHMD	-3437
▁FWELLS	-3438
▁Freeze	-3439
▁GASWAT	-3440
▁GDFILE	-3441
▁GINODE	-3442
▁GLTHEX	-3443
▁HEATTR	-3444
▁HEATTX	-3445
▁HEATTY	-3446
▁HEATTZ	-3447
▁HMDIMS	-3448
▁HMROCK	-3449
▁HMRREF	-3450
▁HWELLS	-3451
▁IKRORG	-3452
▁IKRORW	-3453
▁IMPCVD	-3454
▁IMPTVD	-3455
▁INCOMP	-3456
▁INSPEC	-3457
▁ISGLPC	-3458
▁ISWLPC	-3459
▁Inform	-3460
▁Insert	-3461
▁JFUNCR	-3462
▁Jargon	-3463
▁KROGRG	-3464
▁KVCOMP	-3465
▁KVTEMP	-3466
▁KWTEMP	-3467
▁LCUNIT	-3468
▁Limits	-3469
▁MEMORY	-3470
▁MINPVV	-3471
▁MPFNNC	-3472
▁MULTIN	-3473
▁Memory	-3474
▁NINEXZ	-3475
▁NINEYZ	-3476
▁NOCASC	-3477
▁NODPCO	-3478
▁NOECHO	-3479
▁NOHYKR	-3480
▁NOHYPC	-3481
▁NOHYST	-3482
▁NPROCX	-3483
▁NPROCY	-3484
▁NRSOUT	-3485
▁NSTACK	-3486
▁NUMRES	-3487
▁NUPCOL	-3488
▁OMEGAA	-3489
▁OPTODD	-3490
▁PEDIMS	-3491
▁PLYMAX	-3492
▁PREFTS	-3493
▁Petrel	-3494
▁Pseudo	-3495
▁QMOBIL	-3496
▁RADIAL	-3497
▁RESOPT	-3498
▁RESORB	-3499
▁RPTHMD	-3500
▁RPTRST	-3501
▁RSSPEC	-3502
▁RTEMPA	-3503
▁Reduce	-3504
▁Region	-3505
▁Report	-3506
▁Resets	-3507
▁SATNUM	-3508
▁SECTBC	-3509
▁SECTOR	-3510
▁SMULIX	-3511
▁SMULIY	-3512
▁SMULIZ	-3513
▁SOMGAS	-3514
▁SOMWAT	-3515
▁SPECHA	-3516
▁SPECHB	-3517
▁SPECHG	-3518
▁SPECHH	-3519
▁Scaled	-3520
▁Solver	-3521
▁THCGAS	-3522
▁THCOIL	-3523
▁THTABB	-3524
▁TRANGE	-3525
▁TRANGL	-3526
▁TRCOEF	-3527
▁TREFTS	-3528
▁TRROCK	-3529
▁Treats	-3530
▁UNIFIN	-3531
▁VAPOIL	-3532
▁VELDEP	-3533
▁VFPINJ	-3534
▁Wilson	-3535
▁absent	-3536
▁assign	-3537
▁bottom	-3538
▁cannot	-3539
▁change	-3540
▁checks	-3541
▁combin	-3542
▁damage	-3543
▁direct	-3544
▁discus	-3545
▁edited	-3546
▁effici	-3547
▁either	-3548
▁energy	-3549
▁groups	-3550
▁handed	-3551
▁heater	-3552
▁height	-3553
▁histor	-3554
▁hydroc	-3555
▁immisc	-3556
▁inflow	-3557
▁making	-3558
▁mandat	-3559
▁metric	-3560
▁mixing	-3561
▁mobile	-3562
▁modify	-3563
▁orient	-3564
▁origin	-3565
▁pathol	-3566
▁report	-3567
▁return	-3568
▁shortc	-3569
▁states	-3570
▁status	-3571
▁steady	-3572
▁string	-3573
▁triple	-3574
▁tuning	-3575
▁vector	-3576
Salinity	-3577
algamate	-3578
centered	-3579
ectories	-3580
ermining	-3581
flooding	-3582
function	-3583
irements	-3584
ositions	-3585
ractured	-3586
ressible	-3587
sistency	-3588
specific	-3589
straints	-3590
tivities	-3591
vergence	-3592
▁ACTDIMS	-3593
▁ACTIONX	-3594
▁AMALGAM	-3595
▁AQUFETP	-3596
▁AQUFLUX	-3597
▁AQUIMPR	-3598
▁AQUSEAL	-3599
▁AQUWELL	-3600
▁AUTOREF	-3601
▁Aqueous	-3602
▁Assumes	-3603
▁CALVALR	-3604
▁CBMOPTS	-3605
▁CCTYPES	-3606
▁CGDTYPE	-3607
▁CGVTYPE	-3608
▁COALADS	-3609
▁COARSEN	-3610
▁CODTYPE	-3611
▁COLUMNS	-3612
▁COMPDAT	-3613
▁COMPORD	-3614
▁COMPSOL	-3615
▁COVTYPE	-3616
▁CRNDENS	-3617
▁Confirm	-3618
▁DEADOIL	-3619
▁DIFFCBM	-3620
▁DIFFTHT	-3621
▁DIFFUSE	-3622
▁DISGASR	-3623
▁DPKRMOD	-3624
▁DZMTRXV	-3625
▁Default	-3626
▁Dynamic	-3627
▁EDITNNC	-3628
▁EHYSTRR	-3629
▁EPSDBGS	-3630
▁EQLOPTS	-3631
▁EXTHOST	-3632
▁Environ	-3633
▁FILLEPS	-3634
▁FMTSAVE	-3635
▁FOAMFRM	-3636
▁FOAMFSC	-3637
▁FOAMFSO	-3638
▁FOAMFST	-3639
▁FOAMFSW	-3640
▁FULLIMP	-3641
▁GASLIFT	-3642
▁GEODIMS	-3643
▁GEOMECH	-3644
▁GEOYLDF	-3645
▁GETDATA	-3646
▁GIMODEL	-3647
▁GPTDIMS	-3648
▁GRAVDRB	-3649
▁GRAVDRM	-3650
▁HEATCRT	-3651
▁HEATTHT	-3652
▁HEATVAP	-3653
▁HISTORY	-3654
▁HMMLRGT	-3655
▁HORIZON	-3656
▁IMKRVVD	-3657
▁IMSPCVD	-3658
▁IONROCK	-3659
▁Include	-3660
▁KVALUES	-3661
▁KVCRWAT	-3662
▁KVTABCn	-3663
▁KVTABLE	-3664
▁KVTABTn	-3665
▁KWTABTn	-3666
▁Keyword	-3667
▁LAGTRAC	-3668
▁LIVEOIL	-3669
▁LOWSALT	-3670
▁LUMPING	-3671
▁MEMSAVE	-3672
▁MINNNCT	-3673
▁MONITOR	-3674
▁MPFANUM	-3675
▁MSGFILE	-3676
▁Message	-3677
▁NETWORK	-3678
▁NINENUM	-3679
▁NMATRIX	-3680
▁NNEWWTF	-3681
▁NODPCDT	-3682
▁Network	-3683
▁OMEGAAS	-3684
▁OMEGABS	-3685
▁OPTIONS	-3686
▁Options	-3687
▁PEDTUNE	-3688
▁PERMAVE	-3689
▁PERMTHT	-3690
▁PETOPTS	-3691
▁PINCHXY	-3692
▁PLYROCK	-3693
▁POLYMER	-3694
▁PPCWMAX	-3695
▁PSPLITX	-3696
▁PSPLITY	-3697
▁PSTEADY	-3698
▁Poisson	-3699
▁REACACT	-3700
▁REACPHA	-3701
▁REGDIMS	-3702
▁RESVNUM	-3703
▁ROCKDEN	-3704
▁ROCKTAS	-3705
▁RPTISOL	-3706
▁RSCONST	-3707
▁RVCONST	-3708
▁Reserve	-3709
▁SALTEFF	-3710
▁SATOPTS	-3711
▁SCFDIMS	-3712
▁SIGMATH	-3713
▁SOLVNUM	-3714
▁SOLWTAB	-3715
▁STHERMX	-3716
▁STOPROD	-3717
▁STOREAC	-3718
▁SUMMARY	-3719
▁SURFADS	-3720
▁SURFVIS	-3721
▁TABDIMS	-3722
▁TCBDIMS	-3723
▁TEMPTVD	-3724
▁THANALB	-3725
▁THANALH	-3726
▁THANALV	-3727
▁THCONMF	-3728
▁THCONSF	-3729
▁THCROCK	-3730
▁THERMAL	-3731
▁THERMEX	-3732
▁TOLCRIT	-3733
▁TRACTVD	-3734
▁TRANTHT	-3735
▁Tabular	-3736
▁Tracers	-3737
▁UDADIMS	-3738
▁UDQDIMS	-3739
▁USEFLUX	-3740
▁VFPProd	-3741
▁VISCREF	-3742
▁WAGHALT	-3743
▁WATDENT	-3744
▁WELSEGS	-3745
▁ZFACTOR	-3746
▁acceler	-3747
▁actions	-3748
▁aliases	-3749
▁columns	-3750
▁contact	-3751
▁corners	-3752
▁cutback	-3753
▁dataset	-3754
▁deleted	-3755
▁devices	-3756
▁editing	-3757
▁elastic	-3758
▁entered	-3759
▁further	-3760
▁history	-3761
▁hystere	-3762
▁induced	-3763
▁instant	-3764
▁instead	-3765
▁limited	-3766
▁margins	-3767
▁methods	-3768
▁missing	-3769
▁mixture	-3770
▁modulus	-3771
▁omitted	-3772
▁partial	-3773
▁plastic	-3774
▁present	-3775
▁results	-3776
▁sealing	-3777
▁storage	-3778
▁summary	-3779
▁systems	-3780
▁targets	-3781
▁treated	-3782
▁updated	-3783
▁varying	-3784
▁wetting	-3785
▁writing	-3786
Component	-3787
Newtonian	-3788
atibility	-3789
dependent	-3790
orporates	-3791
ositional	-3792
titioning	-3793
▁ACTPARAM	-3794
▁ADDZCORN	-3795
▁ADSALNOD	-3796
▁AJGRADNT	-3797
▁ALKALINE	-3798
▁ALSURFST	-3799
▁APIGROUP	-3800
▁ASPHALTE	-3801
▁AUTOCOAR	-3802
▁Activity	-3803
▁Allocate	-3804
▁BIGMODEL	-3805
▁BTOBALFA	-3806
▁BTOBALFV	-3807
▁Boundary	-3808
▁COALNUMR	-3809
▁COLLAPSE	-3810
▁COMPRESS	-3811
▁CONDFLTS	-3812
▁CONDFRAC	-3813
▁CONNSPEC	-3814
▁CONVSTRG	-3815
▁COORDSYS	-3816
▁Connects	-3817
▁DEPTHTAB	-3818
▁DIAGDISP	-3819
▁DIFFCOAL	-3820
▁DISPDIMS	-3821
▁DISPERSE	-3822
▁DRAINAGE	-3823
▁DUALPERM	-3824
▁DUALPORO	-3825
▁DUMPFLUX	-3826
▁DYNRDIMS	-3827
▁Declares	-3828
▁Disallow	-3829
▁EDITNNCR	-3830
▁ENDSCALE	-3831
▁ENSPCVDV	-3832
▁EPSDEBUG	-3833
▁EQLZCORN	-3834
▁EXTRAPMS	-3835
▁EXTREPGL	-3836
▁Expected	-3837
▁FASTTRAC	-3838
▁FAULTDIM	-3839
▁FLUXOPTS	-3840
▁FOAMMOBE	-3841
▁FOAMMOBP	-3842
▁FORMFEED	-3843
▁FORMOPTS	-3844
▁FRACTURE	-3845
▁FRICTION	-3846
▁Friction	-3847
▁GASFIELD	-3848
▁GASVISCF	-3849
▁GASVISCT	-3850
▁GCONINJE	-3851
▁GCONPROD	-3852
▁GDORIENT	-3853
▁GEOMETRY	-3854
▁GRAVCONS	-3855
▁GRIDOPTS	-3856
▁GRIDUNIT	-3857
▁HALFTRAN	-3858
▁HEATDIMS	-3859
▁HEATVAPE	-3860
▁HEATVAPS	-3861
▁HMAQUNUM	-3862
▁HMMLAQUN	-3863
▁HMMRREGT	-3864
▁HMMULTXX	-3865
▁HMMULTxx	-3866
▁INJECTOR	-3867
▁Implicit	-3868
▁Includes	-3869
▁Killough	-3870
▁LANGMEXT	-3871
▁LANGMULC	-3872
▁LANGMULT	-3873
▁LANGSOLV	-3874
▁LBCCOEFR	-3875
▁LICENSES	-3876
▁LINKPERM	-3877
▁LUMPDIMS	-3878
▁MAPUNITS	-3879
▁MESSAGES	-3880
▁MINROCKV	-3881
▁MISCIBLE	-3882
▁MLANGSLV	-3883
▁MULTIPHA	-3884
▁MULTOUTS	-3885
▁MULTREAL	-3886
▁MULTSAVE	-3887
▁Miscible	-3888
▁Modified	-3889
▁NMATOPTS	-3890
▁NOAIMLGR	-3891
▁NOFREEZE	-3892
▁NOINSPEC	-3893
▁NOMONITO	-3894
▁NORSSPEC	-3895
▁NOWARNEP	-3896
▁OILCOMPR	-3897
▁OILSPECH	-3898
▁OILVINDX	-3899
▁OILVISCC	-3900
▁OILVISCF	-3901
▁OLDTRANR	-3902
▁OVERBURD	-3903
▁PARALLEL	-3904
▁PARTTRAC	-3905
▁PEDERSEN	-3906
▁PIMTDIMS	-3907
▁PINCHOUT	-3908
▁PLYATEMP	-3909
▁PLYSHEAR	-3910
▁POISSONR	-3911
▁Produces	-3912
▁REACCORD	-3913
▁REACPORD	-3914
▁REACRATE	-3915
▁REACTION	-3916
▁REACTRAC	-3917
▁RIVRDIMS	-3918
▁RKTRMDIR	-3919
▁ROCKCOMP	-3920
▁ROCKCONL	-3921
▁ROCKDIMS	-3922
▁ROCKFRAC	-3923
▁ROCKOPTS	-3924
▁ROCKPAME	-3925
▁ROCKPROP	-3926
▁RPTGRIDL	-3927
▁RPTPROPS	-3928
▁RPTRUNSP	-3929
▁RPTSCHED	-3930
▁RSCONSTT	-3931
▁RVCONSTT	-3932
▁Reactant	-3933
▁Redefine	-3934
▁Relative	-3935
▁Replaces	-3936
▁Residual	-3937
▁SALTNODE	-3938
▁SCALECRS	-3939
▁SCALELIM	-3940
▁SCDATABG	-3941
▁SCDPDIMS	-3942
▁SCHEDULE	-3943
▁SKIPSTAB	-3944
▁SOLIDADS	-3945
▁SOLIDMMC	-3946
▁SOLIDMMS	-3947
▁SOLUTION	-3948
▁SPECGRID	-3949
▁SPECHEAT	-3950
▁SPECROCK	-3951
▁STONELEX	-3952
▁SURFADDW	-3953
▁SURFOPTS	-3954
▁SURFROCK	-3955
▁SWATINIT	-3956
▁Services	-3957
▁Settings	-3958
▁THCSOLID	-3959
▁THCWATER	-3960
▁THEFLXTF	-3961
▁THPRESET	-3962
▁THPRESFT	-3963
▁TPAMEPSS	-3964
▁TRACITVD	-3965
▁TRACKERP	-3966
▁TRPLPORO	-3967
▁UDQPARAM	-3968
▁UNCODHMD	-3969
▁UNIFOUTS	-3970
▁UNIFSAVE	-3971
▁VECTABLE	-3972
▁VFEPDIMS	-3973
▁WCOMPRES	-3974
▁WCONINJE	-3975
▁WCONPROD	-3976
▁WELSPECS	-3977
▁WSEGDIMS	-3978
▁WSEGSICD	-3979
▁WSEGSOLV	-3980
▁Wellbore	-3981
▁YOUNGMOD	-3982
▁ZFACTORS	-3983
▁analysis	-3984
▁analytic	-3985
▁applying	-3986
▁changing	-3987
▁checking	-3988
▁chemical	-3989
▁collapse	-3990
▁complete	-3991
▁computed	-3992
▁continue	-3993
▁disables	-3994
▁discrete	-3995
▁economic	-3996
▁embedded	-3997
▁exchange	-3998
▁exponent	-3999
▁formfeed	-4000
▁horizons	-4001
▁licenses	-4002
▁location	-4003
▁miscible	-4004
▁obtained	-4005
▁pathname	-4006
▁previous	-4007
▁produced	-4008
▁products	-4009
▁proppant	-4010
▁recovery	-4011
▁replaced	-4012
▁requires	-4013
▁restarts	-4014
▁sections	-4015
▁severity	-4016
▁thinning	-4017
▁timestep	-4018
▁together	-4019
▁tracking	-4020
▁workflow	-4021
adsorption	-4022
cumulative	-4023
functional	-4024
processors	-4025
thickening	-4026
▁CROSSFLOW	-4027
▁Curvature	-4028
▁DIFFUSION	-4029
▁DRILLWELL	-4030
▁Diffusion	-4031
▁Fractured	-4032
▁HYDROCARB	-4033
▁INTERFACE	-4034
▁NINEPOINT	-4035
▁Reservoir	-4036
▁Restricts	-4037
▁Technical	-4038
▁Threshold	-4039
▁Transport	-4040
▁VFEPPDIMS	-4041
▁algebraic	-4042
▁algorithm	-4043
▁alternate	-4044
▁arguments	-4045
▁averaging	-4046
▁backwards	-4047
▁connected	-4048
▁crossflow	-4049
▁determine	-4050
▁discussed	-4051
▁fractions	-4052
▁fractures	-4053
▁influence	-4054
▁interface	-4055
▁iterative	-4056
▁licensing	-4057
▁locations	-4058
▁mandatory	-4059
▁multigrid	-4060
▁positions	-4061
▁processes	-4062
▁producers	-4063
▁proponent	-4064
▁reactants	-4065
▁resulting	-4066
▁schedules	-4067
▁screening	-4068
▁segmented	-4069
▁selection	-4070
▁sensitive	-4071
▁shortcuts	-4072
▁stability	-4073
▁subregion	-4074
▁switching	-4075
▁unencoded	-4076
▁upscaling	-4077
▁variation	-4078
▁weighting	-4079
Realization	-4080
homogeneous	-4081
▁Analytical	-4082
▁CONNECTION	-4083
▁Compressed	-4084
▁Horizontal	-4085
▁Lagrangian	-4086
▁NRSOPTIONS	-4087
▁Operations	-4088
▁Overburden	-4089
▁Reactivate	-4090
▁Suppresses	-4091
▁Vertically	-4092
▁Volumetric	-4093
▁accounting	-4094
▁activation	-4095
▁amalgamate	-4096
▁compressib	-4097
▁condensate	-4098
▁coordinate	-4099
▁correction	-4100
▁deposition	-4101
▁efficiency	-4102
▁evaluation	-4103
▁explicitly	-4104
▁geometries	-4105
▁handedness	-4106
▁historical	-4107
▁horizontal	-4108
▁hysteretic	-4109
▁immiscible	-4110
▁internally	-4111
▁iterations	-4112
▁multiplied	-4113
▁multipoint	-4114
▁porosities	-4115
▁prediction	-4116
▁processing	-4117
▁quantities	-4118
▁relatively	-4119
▁reservoirs	-4120
▁restricted	-4121
▁simulators	-4122
▁stringency	-4123
▁subsequent	-4124
▁Diffusivity	-4125
▁Formulation	-4126
▁Information	-4127
▁Initializes	-4128
▁combination	-4129
▁completions	-4130
▁conditional	-4131
▁consistency	-4132
▁constraints	-4133
▁controlling	-4134
▁convergence	-4135
▁definitions	-4136
▁determining	-4137
▁discretized	-4138
▁hydrocarbon	-4139
▁independent	-4140
▁integration	-4141
▁interfacial	-4142
▁interpolate	-4143
▁orientation	-4144
▁suppression	-4145
▁thicknesses	-4146
▁underburden	-4147
▁viscosities	-4148
compositional	-4149
interpolation	-4150
▁Incorporates	-4151
▁Optimization	-4152
▁Partitioning	-4153
▁acceleration	-4154
▁condensation	-4155
▁correlations	-4156
▁incompatible	-4157
▁pathological	-4158
▁perforations	-4159
▁productivity	-4160
▁requirements	-4161
▁Automatically	-4162
▁Environmental	-4163
▁Specification	-4164
▁compatibility	-4165
▁compositional	-4166
▁extrapolation	-4167
▁instantaneous	-4168
▁sensitivities	-4169
▁waterflooding	-4170
▁concentrations	-4171
▁incompressible	-4172
▁initialization	-4173
▁multiplicative	-4174
▁Compressibility	-4175
▁characteristics	-4176
10	-4177
2-	-4178
AA	-4179
AI	-4180
AK	-4181
AU	-4182
Ac	-4183
Ad	-4184
Al	-4185
As	-4186
BA	-4187
BB	-4188
BG	-4189
BO	-4190
BP	-4191
BR	-4192
Be	-4193
CP	-4194
CU	-4195
CV	-4196
CX	-4197
Co	-4198
Cr	-4199
Ap	-4200
BT	-4201
Ca	-4202
Cu	-4203
DC	-4204
DH	-4205
DI	-4206
DJ	-4207
DK	-4208
DM	-4209
DQ	-4210
DU	-4211
DW	-4212
DY	-4213
De	-4214
Di	-4215
Do	-4216
Du	-4217
EE	-4218
EH	-4219
EQ	-4220
En	-4221
Eo	-4222
Eq	-4223
FC	-4224
FE	-4225
FI	-4226
FL	-4227
FN	-4228
FP	-4229
FR	-4230
FS	-4231
FV	-4232
FW	-4233
FX	-4234
FZ	-4235
Fl	-4236
Fo	-4237
Fu	-4238
GA	-4239
GC	-4240
GP	-4241
GT	-4242
Ga	-4243
Gr	-4244
HC	-4245
HM	-4246
HN	-4247
HO	-4248
HT	-4249
HZ	-4250
He	-4251
Hi	-4252
Ho	-4253
Hy	-4254
IG	-4255
Id	-4256
Im	-4257
In	-4258
JA	-4259
JE	-4260
KC	-4261
KF	-4262
KI	-4263
KP	-4264
KU	-4265
Ke	-4266
LC	-4267
LD	-4268
LF	-4269
LK	-4270
LM	-4271
LR	-4272
LS	-4273
LX	-4274
Lo	-4275
MA	-4276
MI	-4277
MK	-4278
MM	-4279
MO	-4280
MR	-4281
MU	-4282
MX	-4283
Mi	-4284
Mo	-4285
Mu	-4286
NE	-4287
NG	-4288
NI	-4289
NJ	-4290
NK	-4291
NM	-4292
NR	-4293
NU	-4294
NZ	-4295
Nu	-4296
OA	-4297
OE	-4298
OH	-4299
30	-4300
AJ	-4301
An	-4302
Au	-4303
BL	-4304
Ba	-4305
By	-4306
CC	-4307
Cs	-4308
EU	-4309
FD	-4310
GH	-4311
Ge	-4312
Gi	-4313
LB	-4314
La	-4315
Le	-4316
MY	-4317
Me	-4318
NV	-4319
Ni	-4320
No	-4321
OI	-4322
OO	-4323
OP	-4324
OT	-4325
OY	-4326
Oi	-4327
Op	-4328
PD	-4329
PO	-4330
Pa	-4331
Pc	-4332
Pe	-4333
Po	-4334
Pr	-4335
QM	-4336
RC	-4337
RN	-4338
RP	-4339
RR	-4340
RT	-4341
RY	-4342
Re	-4343
Ro	-4344
Ru	-4345
Rv	-4346
SC	-4347
SD	-4348
SH	-4349
SK	-4350
SM	-4351
SN	-4352
SO	-4353
SU	-4354
SV	-4355
SY	-4356
Sa	-4357
Sc	-4358
Se	-4359
Sg	-4360
Si	-4361
Sk	-4362
So	-4363
Sp	-4364
St	-4365
Su	-4366
Sw	-4367
TA	-4368
TB	-4369
TE	-4370
TF	-4371
TI	-4372
TL	-4373
TM	-4374
TN	-4375
TO	-4376
TP	-4377
TR	-4378
TT	-4379
TV	-4380
TY	-4381
TZ	-4382
Ta	-4383
Th	-4384
Tr	-4385
Tx	-4386
UA	-4387
UE	-4388
UF	-4389
UI	-4390
UQ	-4391
UR	-4392
UW	-4393
UX	-4394
Up	-4395
Us	-4396
VA	-4397
VE	-4398
VG	-4399
0.	-4400
AQ	-4401
Bi	-4402
CA	-4403
CK	-4404
DA	-4405
Dr	-4406
EA	-4407
EB	-4408
Ef	-4409
Ex	-4410
FF	-4411
GF	-4412
IE	-4413
KA	-4414
KE	-4415
KO	-4416
LH	-4417
LP	-4418
ME	-4419
OU	-4420
RK	-4421
RV	-4422
TC	-4423
TU	-4424
Tw	-4425
UC	-4426
UD	-4427
VI	-4428
VN	-4429
VR	-4430
VY	-4431
Va	-4432
Ve	-4433
WA	-4434
WE	-4435
WO	-4436
WV	-4437
Wa	-4438
We	-4439
XN	-4440
XR	-4441
XV	-4442
YB	-4443
YF	-4444
YK	-4445
YN	-4446
YO	-4447
YP	-4448
YR	-4449
YV	-4450
YY	-4451
Yo	-4452
ZF	-4453
ZM	-4454
ZO	-4455
ZV	-4456
ZZ	-4457
Zu	-4458
ai	-4459
aq	-4460
au	-4461
av	-4462
ba	-4463
bb	-4464
be	-4465
bl	-4466
bo	-4467
br	-4468
bu	-4469
by	-4470
ca	-4471
ci	-4472
ck	-4473
cr	-4474
cs	-4475
cu	-4476
cy	-4477
da	-4478
dd	-4479
dk	-4480
do	-4481
dp	-4482
ea	-4483
eb	-4484
ee	-4485
ei	-4486
eo	-4487
ep	-4488
eq	-4489
eu	-4490
ev	-4491
ew	-4492
ex	-4493
ey	-4494
fa	-4495
fe	-4496
fi	-4497
fl	-4498
fo	-4499
1.	-4500
BE	-4501
BS	-4502
CE	-4503
CS	-4504
DO	-4505
DV	-4506
Dy	-4507
FO	-4508
Fi	-4509
Fr	-4510
GO	-4511
HS	-4512
LN	-4513
LZ	-4514
Li	-4515
MZ	-4516
NP	-4517
Ou	-4518
Ov	-4519
PK	-4520
RU	-4521
RZ	-4522
SA	-4523
SW	-4524
Sh	-4525
TJ	-4526
TW	-4527
TX	-4528
Ti	-4529
US	-4530
VZ	-4531
Wi	-4532
XE	-4533
YW	-4534
ZC	-4535
ZE	-4536
ZN	-4537
ZX	-4538
fr	-4539
fu	-4540
fy	-4541
ga	-4542
gl	-4543
gn	-4544
go	-4545
gr	-4546
gs	-4547
gt	-4548
gu	-4549
ha	-4550
hb	-4551
he	-4552
hi	-4553
hm	-4554
hr	-4555
hs	-4556
ht	-4557
hy	-4558
ie	-4559
ik	-4560
io	-4561
iq	-4562
iu	-4563
ka	-4564
ki	-4565
kn	-4566
lc	-4567
ld	-4568
lf	-4569
lg	-4570
li	-4571
lk	-4572
ll	-4573
lm	-4574
lp	-4575
ls	-4576
lt	-4577
lv	-4578
ma	-4579
mb	-4580
mf	-4581
mi	-4582
mm	-4583
mn	-4584
mo	-4585
mp	-4586
mu	-4587
na	-4588
nc	-4589
ne	-4590
nf	-4591
ni	-4592
nk	-4593
nl	-4594
nn	-4595
no	-4596
np	-4597
nv	-4598
ny	-4599
0)	-4600
Aq	-4601
BH	-4602
Bo	-4603
DN	-4604
Ea	-4605
FU	-4606
FY	-4607
GV	-4608
HW	-4609
HX	-4610
IA	-4611
Ki	-4612
LL	-4613
LW	-4614
MN	-4615
NA	-4616
NH	-4617
NX	-4618
Na	-4619
OG	-4620
OV	-4621
PN	-4622
QC	-4623
SR	-4624
TD	-4625
TK	-4626
Te	-4627
Tu	-4628
UG	-4629
UU	-4630
VS	-4631
Vo	-4632
XS	-4633
cc	-4634
cl	-4635
nh	-4636
oa	-4637
ob	-4638
oe	-4639
of	-4640
oi	-4641
oo	-4642
ou	-4643
ov	-4644
ox	-4645
pa	-4646
pe	-4647
pi	-4648
po	-4649
ps	-4650
pt	-4651
pu	-4652
rb	-4653
rc	-4654
rd	-4655
rf	-4656
rg	-4657
rm	-4658
rn	-4659
rp	-4660
rr	-4661
rs	-4662
rt	-4663
ru	-4664
rv	-4665
sa	-4666
sc	-4667
sh	-4668
sk	-4669
sm	-4670
sp	-4671
ss	-4672
su	-4673
sw	-4674
sy	-4675
ta	-4676
tb	-4677
tl	-4678
tp	-4679
tu	-4680
tw	-4681
ua	-4682
ue	-4683
ui	-4684
ux	-4685
va	-4686
vo	-4687
vs	-4688
wa	-4689
wb	-4690
we	-4691
wh	-4692
wi	-4693
wr	-4694
ws	-4695
xa	-4696
xc	-4697
xi	-4698
xp	-4699
0,	-4700
AF	-4701
BD	-4702
DG	-4703
DL	-4704
EY	-4705
HB	-4706
HG	-4707
HI	-4708
HR	-4709
IB	-4710
IK	-4711
JF	-4712
Ja	-4713
Jo	-4714
KD	-4715
KW	-4716
Kw	-4717
MG	-4718
ML	-4719
NL	-4720
NY	-4721
PU	-4722
Ps	-4723
RB	-4724
RW	-4725
SL	-4726
VM	-4727
VV	-4728
VW	-4729
VX	-4730
WC	-4731
WM	-4732
WS	-4733
XF	-4734
XO	-4735
XZ	-4736
YA	-4737
YD	-4738
af	-4739
ez	-4740
kf	-4741
lb	-4742
nm	-4743
rk	-4744
xt	-4745
yd	-4746
ym	-4747
ys	-4748
yt	-4749
za	-4750
zo	-4751
▁k	-4752
▁q	-4753
▁u	-4754
AAS	-4755
ABT	-4756
ACA	-4757
ACP	-4758
AGH	-4759
ALA	-4760
ALH	-4761
AMD	-4762
AMO	-4763
APS	-4764
ARS	-4765
AST	-4766
ATT	-4767
BIL	-4768
CHB	-4769
CHG	-4770
CHH	-4771
CHS	-4772
CHT	-4773
CHW	-4774
COL	-4775
CTB	-4776
CTL	-4777
CTV	-4778
CYO	-4779
Con	-4780
Cri	-4781
Cur	-4782
DAR	-4783
DDZ	-4784
DEB	-4785
DER	-4786
DIN	-4787
DPC	-4788
DSK	-4789
DSY	-4790
Det	-4791
Dif	-4792
Dra	-4793
EAL	-4794
EDU	-4795
ELE	-4796
EPT	-4797
ERN	-4798
ERR	-4799
HH	-4800
QD	-4801
QP	-4802
To	-4803
Un	-4804
WF	-4805
bs	-4806
dn	-4807
dy	-4808
ft	-4809
kw	-4810
pd	-4811
sf	-4812
wW	-4813
ye	-4814
yi	-4815
ALV	-4816
Dec	-4817
EGS	-4818
ERS	-4819
FAC	-4820
FLU	-4821
For	-4822
Fre	-4823
Fri	-4824
Ful	-4825
GDT	-4826
GMO	-4827
Gri	-4828
HER	-4829
IDF	-4830
IDO	-4831
IGR	-4832
IME	-4833
IND	-4834
INI	-4835
INV	-4836
IPL	-4837
ISO	-4838
Int	-4839
Jar	-4840
KRG	-4841
LRE	-4842
LTS	-4843
LTx	-4844
LUM	-4845
MOR	-4846
Met	-4847
Mul	-4848
NAL	-4849
NCR	-4850
NIF	-4851
NIT	-4852
NPT	-4853
NTH	-4854
Num	-4855
OBP	-4856
OIN	-4857
OLA	-4858
ONN	-4859
OOD	-4860
Out	-4861
PFL	-4862
PFN	-4863
PIN	-4864
PSD	-4865
PTD	-4866
PTI	-4867
PTP	-4868
PYB	-4869
Pal	-4870
Ped	-4871
Pet	-4872
Por	-4873
QPA	-4874
QUF	-4875
RAV	-4876
RCO	-4877
RFA	-4878
RFR	-4879
RIC	-4880
ROR	-4881
RST	-4882
RVD	-4883
RVT	-4884
Red	-4885
Res	-4886
Roc	-4887
SAL	-4888
SCT	-4889
STK	-4890
STO	-4891
THE	-4892
THM	-4893
TOR	-4894
Tra	-4895
UCT	-4896
UES	-4897
UMN	-4898
UMR	-4899
AMF	-4900
ATA	-4901
Bin	-4902
LIF	-4903
MPC	-4904
MTS	-4905
Min	-4906
Nin	-4907
ONL	-4908
PLP	-4909
Per	-4910
Pre	-4911
RAT	-4912
Sal	-4913
Ser	-4914
TEG	-4915
TUN	-4916
Ter	-4917
Tre	-4918
UND	-4919
VDG	-4920
VDO	-4921
VIT	-4922
Vec	-4923
Ver	-4924
Vol	-4925
WAR	-4926
WEN	-4927
Wel	-4928
XRE	-4929
ZMT	-4930
ace	-4931
ail	-4932
ala	-4933
ale	-4934
alp	-4935
ama	-4936
are	-4937
asi	-4938
ata	-4939
atc	-4940
att	-4941
bac	-4942
bon	-4943
bre	-4944
cel	-4945
cer	-4946
cit	-4947
cod	-4948
col	-4949
com	-4950
con	-4951
cor	-4952
cut	-4953
dal	-4954
dif	-4955
din	-4956
dul	-4957
eas	-4958
eca	-4959
edi	-4960
edn	-4961
edu	-4962
efa	-4963
ein	-4964
eit	-4965
ely	-4966
emb	-4967
ems	-4968
era	-4969
erb	-4970
erf	-4971
erg	-4972
eri	-4973
ern	-4974
ero	-4975
erp	-4976
ery	-4977
esc	-4978
ese	-4979
eti	-4980
etr	-4981
fer	-4982
fic	-4983
fin	-4984
flo	-4985
fun	-4986
get	-4987
gin	-4988
gns	-4989
gon	-4990
gra	-4991
gre	-4992
hec	-4993
hed	-4994
her	-4995
hes	-4996
hin	-4997
hre	-4998
hti	-4999
CCO	-5000
Des	-5001
Gen	-5002
Hor	-5003
LTE	-5004
LTN	-5005
Mes	-5006
NEP	-5007
REP	-5008
Sat	-5009
YAT	-5010
cen	-5011
ces	-5012
cts	-5013
eci	-5014
edd	-5015
ens	-5016
esi	-5017
est	-5018
gen	-5019
ges	-5020
hen	-5021
hts	-5022
iag	-5023
ien	-5024
ier	-5025
ify	-5026
ili	-5027
imi	-5028
ina	-5029
inc	-5030
ind	-5031
inf	-5032
ini	-5033
inn	-5034
inp	-5035
ion	-5036
ips	-5037
isi	-5038
ize	-5039
ker	-5040
key	-5041
kin	-5042
lap	-5043
lat	-5044
lec	-5045
lef	-5046
len	-5047
ler	-5048
les	-5049
let	-5050
lic	-5051
lin	-5052
lit	-5053
lob	-5054
lor	-5055
lti	-5056
lud	-5057
man	-5058
med	-5059
men	-5060
mic	-5061
min	-5062
miz	-5063
mon	-5064
mor	-5065
mpl	-5066
nab	-5067
nam	-5068
nat	-5069
ndi	-5070
nec	-5071
nen	-5072
nes	-5073
net	-5074
nif	-5075
nin	-5076
nod	-5077
non	-5078
nsi	-5079
nsp	-5080
nti	-5081
nts	-5082
oar	-5083
oca	-5084
oef	-5085
oin	-5086
ola	-5087
oli	-5088
olo	-5089
olu	-5090
olv	-5091
omi	-5092
ona	-5093
onc	-5094
ond	-5095
onf	-5096
oni	-5097
onl	-5098
onm	-5099
ALP	-5100
Cal	-5101
Cat	-5102
Mat	-5103
OCR	-5104
PCD	-5105
PTS	-5106
QUT	-5107
SCH	-5108
SPC	-5109
VTE	-5110
Wat	-5111
ali	-5112
alm	-5113
ans	-5114
ath	-5115
atr	-5116
cat	-5117
dat	-5118
ecl	-5119
eco	-5120
ela	-5121
enh	-5122
geb	-5123
iat	-5124
itt	-5125
ive	-5126
ken	-5127
mal	-5128
mat	-5129
nst	-5130
oal	-5131
onn	-5132
ono	-5133
onv	-5134
oor	-5135
ora	-5136
orb	-5137
orm	-5138
orn	-5139
oro	-5140
orp	-5141
ors	-5142
ort	-5143
pal	-5144
pat	-5145
pen	-5146
pes	-5147
pic	-5148
pil	-5149
pin	-5150
pla	-5151
pon	-5152
pre	-5153
que	-5154
qui	-5155
rad	-5156
rai	-5157
ral	-5158
ram	-5159
ran	-5160
rap	-5161
rat	-5162
rav	-5163
rea	-5164
rec	-5165
red	-5166
ref	-5167
reg	-5168
rem	-5169
ren	-5170
rep	-5171
req	-5172
ret	-5173
rev	-5174
ria	-5175
rig	-5176
rim	-5177
rin	-5178
rip	-5179
riu	-5180
ron	-5181
ror	-5182
ros	-5183
rra	-5184
rre	-5185
rti	-5186
sag	-5187
sal	-5188
sat	-5189
seg	-5190
sen	-5191
ser	-5192
ses	-5193
set	-5194
seu	-5195
sin	-5196
siv	-5197
soc	-5198
son	-5199
ACC	-5200
ACS	-5201
ASL	-5202
ASS	-5203
CHE	-5204
FET	-5205
FIL	-5206
Fra	-5207
Gra	-5208
Kil	-5209
OGR	-5210
Oil	-5211
Pri	-5212
Tab	-5213
Tit	-5214
Wil	-5215
bil	-5216
cil	-5217
dit	-5218
dra	-5219
duc	-5220
eck	-5221
fra	-5222
ifi	-5223
ipp	-5224
itc	-5225
itl	-5226
ril	-5227
rit	-5228
sit	-5229
sti	-5230
tal	-5231
tan	-5232
tat	-5233
tem	-5234
ten	-5235
tes	-5236
ths	-5237
tia	-5238
tib	-5239
tie	-5240
tig	-5241
tim	-5242
tin	-5243
tio	-5244
tip	-5245
tir	-5246
tis	-5247
tit	-5248
ton	-5249
tra	-5250
tre	-5251
tri	-5252
tti	-5253
uen	-5254
ues	-5255
uil	-5256
ule	-5257
ulu	-5258
ume	-5259
uns	-5260
ura	-5261
urd	-5262
urt	-5263
usi	-5264
utb	-5265
ute	-5266
uti	-5267
utp	-5268
val	-5269
vat	-5270
vec	-5271
vit	-5272
vol	-5273
wat	-5274
wil	-5275
win	-5276
wit	-5277
wor	-5278
wri	-5279
xch	-5280
xin	-5281
xpl	-5282
yer	-5283
yin	-5284
ysi	-5285
yti	-5286
zer	-5287
zes	-5288
zon	-5289
▁AC	-5290
▁AU	-5291
▁BH	-5292
▁BI	-5293
▁BT	-5294
▁CA	-5295
▁CB	-5296
▁CN	-5297
▁CV	-5298
▁DA	-5299
AMM	-5300
Bed	-5301
CRE	-5302
CUN	-5303
MMC	-5304
MPT	-5305
Net	-5306
Rel	-5307
SAG	-5308
SIS	-5309
TOC	-5310
Tec	-5311
UNS	-5312
bri	-5313
bul	-5314
cul	-5315
ech	-5316
ect	-5317
ecu	-5318
ede	-5319
eds	-5320
elo	-5321
etc	-5322
fec	-5323
gri	-5324
het	-5325
lif	-5326
mec	-5327
mul	-5328
oul	-5329
riv	-5330
sab	-5331
sid	-5332
ssi	-5333
sta	-5334
sul	-5335
uif	-5336
ull	-5337
ult	-5338
ups	-5339
ved	-5340
zed	-5341
▁DO	-5342
▁DT	-5343
▁DU	-5344
▁Di	-5345
▁Dy	-5346
▁EH	-5347
▁EP	-5348
▁ES	-5349
▁EX	-5350
▁Ef	-5351
▁FU	-5352
▁FV	-5353
▁Fi	-5354
▁GA	-5355
▁GP	-5356
▁HA	-5357
▁HR	-5358
▁HW	-5359
▁Jo	-5360
▁LG	-5361
▁LI	-5362
▁LO	-5363
▁Lo	-5364
▁MA	-5365
▁ME	-5366
▁MI	-5367
▁MP	-5368
▁MS	-5369
▁Ma	-5370
▁Me	-5371
▁Mi	-5372
▁Mo	-5373
▁Mu	-5374
▁NP	-5375
▁NR	-5376
▁NU	-5377
▁OM	-5378
▁Ov	-5379
▁PA	-5380
▁PC	-5381
▁PD	-5382
▁PR	-5383
▁Pa	-5384
▁Ru	-5385
▁SA	-5386
▁SE	-5387
▁SI	-5388
▁SL	-5389
▁SM	-5390
▁SO	-5391
▁SU	-5392
▁Sa	-5393
▁Sc	-5394
▁Se	-5395
▁Sh	-5396
▁Si	-5397
▁Sk	-5398
▁So	-5399
ARF	-5400
Aut	-5401
DIF	-5402
Dis	-5403
ECL	-5404
ETA	-5405
FCO	-5406
His	-5407
IFE	-5408
Lab	-5409
PSO	-5410
RIL	-5411
Tur	-5412
epl	-5413
his	-5414
iso	-5415
isp	-5416
ist	-5417
nta	-5418
ois	-5419
pli	-5420
tur	-5421
urf	-5422
vis	-5423
▁CC	-5424
▁CI	-5425
▁CP	-5426
▁Ca	-5427
▁Cu	-5428
▁Du	-5429
▁FM	-5430
▁ML	-5431
▁MO	-5432
▁MU	-5433
▁PL	-5434
▁PM	-5435
▁PP	-5436
▁Ps	-5437
▁Su	-5438
▁Sw	-5439
▁TC	-5440
▁TE	-5441
▁TP	-5442
▁TS	-5443
▁Te	-5444
▁Tw	-5445
▁Us	-5446
▁Va	-5447
▁WC	-5448
▁WS	-5449
▁YO	-5450
▁ZF	-5451
▁Zu	-5452
▁ap	-5453
▁aq	-5454
▁au	-5455
▁av	-5456
▁bu	-5457
▁ca	-5458
▁ce	-5459
▁ci	-5460
▁cr	-5461
▁cu	-5462
▁da	-5463
▁do	-5464
▁du	-5465
▁el	-5466
▁eq	-5467
▁er	-5468
▁fa	-5469
▁fi	-5470
▁fo	-5471
▁fr	-5472
▁fu	-5473
▁ga	-5474
▁ge	-5475
▁gi	-5476
▁gl	-5477
▁gr	-5478
▁la	-5479
▁me	-5480
▁mi	-5481
▁mu	-5482
▁na	-5483
▁ob	-5484
▁oi	-5485
▁om	-5486
▁op	-5487
▁ou	-5488
▁ov	-5489
▁pa	-5490
▁ph	-5491
▁po	-5492
▁ro	-5493
▁sa	-5494
▁sc	-5495
▁sh	-5496
▁si	-5497
▁sk	-5498
▁so	-5499
ALB	-5500
ALN	-5501
Bas	-5502
CTD	-5503
Gas	-5504
IFS	-5505
Loc	-5506
MRE	-5507
POR	-5508
RFO	-5509
YKR	-5510
bse	-5511
clu	-5512
ddi	-5513
del	-5514
diu	-5515
els	-5516
iel	-5517
las	-5518
lel	-5519
old	-5520
ols	-5521
pas	-5522
roc	-5523
rol	-5524
str	-5525
toc	-5526
wel	-5527
▁AD	-5528
▁AI	-5529
▁AJ	-5530
▁AP	-5531
▁AQ	-5532
▁Ac	-5533
▁Ap	-5534
▁Aq	-5535
▁EC	-5536
▁EO	-5537
▁EQ	-5538
▁Ea	-5539
▁Eo	-5540
▁Eq	-5541
▁HE	-5542
▁RA	-5543
▁RI	-5544
▁RK	-5545
▁RO	-5546
▁RP	-5547
▁RU	-5548
▁sp	-5549
▁su	-5550
▁sw	-5551
▁sy	-5552
▁ta	-5553
▁te	-5554
▁tr	-5555
▁tu	-5556
▁tw	-5557
▁ty	-5558
▁va	-5559
▁vi	-5560
▁wa	-5561
▁we	-5562
ACEN	-5563
AIML	-5564
AKER	-5565
ALIN	-5566
ALRE	-5567
ANGS	-5568
ANUM	-5569
ATAB	-5570
ATCR	-5571
ATTH	-5572
AULT	-5573
BCCO	-5574
CENS	-5575
CONL	-5576
CRAT	-5577
CTBC	-5578
DCYO	-5579
DFIN	-5580
DSAL	-5581
DTUN	-5582
ERAT	-5583
ERMR	-5584
EWWT	-5585
FLOW	-5586
GASR	-5587
GROU	-5588
Grid	-5589
HERM	-5590
HNUM	-5591
IFIN	-5592
ILCO	-5593
IMEN	-5594
IMOD	-5595
INEP	-5596
IRCL	-5597
ISCI	-5598
ISCO	-5599
ADO	-5600
AXV	-5601
Com	-5602
DOR	-5603
Fun	-5604
IMO	-5605
INA	-5606
LIM	-5607
OND	-5608
RUN	-5609
VTW	-5610
YRE	-5611
aci	-5612
ann	-5613
def	-5614
eac	-5615
efe	-5616
efo	-5617
equ	-5618
gic	-5619
hic	-5620
ica	-5621
lac	-5622
lar	-5623
nic	-5624
odu	-5625
oic	-5626
omb	-5627
omo	-5628
pac	-5629
run	-5630
tac	-5631
tom	-5632
ung	-5633
vic	-5634
▁OU	-5635
▁TA	-5636
▁TO	-5637
▁ef	-5638
▁ho	-5639
ABTn	-5640
EDIM	-5641
ISCT	-5642
KRVT	-5643
LIMP	-5644
LTNO	-5645
LUXO	-5646
MATR	-5647
MDIM	-5648
MDIR	-5649
METR	-5650
MOBP	-5651
NCON	-5652
NUMR	-5653
OAMD	-5654
OAMR	-5655
OCKC	-5656
OCKD	-5657
OCKF	-5658
OCKO	-5659
OCKP	-5660
OCKV	-5661
OLVD	-5662
OUTS	-5663
PCOL	-5664
PERS	-5665
PSOL	-5666
PTGR	-5667
PTIN	-5668
PTIS	-5669
QDIM	-5670
QMOB	-5671
QUAL	-5672
QUCT	-5673
RANZ	-5674
REGH	-5675
RIDO	-5676
RREG	-5677
SGAS	-5678
SIGM	-5679
SOPT	-5680
SORD	-5681
SOUT	-5682
SSNO	-5683
STES	-5684
STRG	-5685
TDIM	-5686
TFIN	-5687
TNUM	-5688
TORY	-5689
TOUT	-5690
TREF	-5691
ULIX	-5692
ULTF	-5693
ULTT	-5694
ULTZ	-5695
ULTx	-5696
UNGM	-5697
UNUM	-5698
URFC	-5699
AMR	-5700
CTI	-5701
GRs	-5702
IDU	-5703
INN	-5704
LTZ	-5705
Lim	-5706
PEC	-5707
QUQ	-5708
WOR	-5709
arn	-5710
dar	-5711
imb	-5712
imm	-5713
imu	-5714
lim	-5715
mar	-5716
sts	-5717
tar	-5718
upd	-5719
xim	-5720
▁OD	-5721
▁TB	-5722
▁TI	-5723
▁To	-5724
ERME	-5725
RANY	-5726
UMRE	-5727
URFO	-5728
UTOC	-5729
VDIM	-5730
VDIR	-5731
Well	-5732
XNUM	-5733
XREG	-5734
abil	-5735
abul	-5736
aced	-5737
acem	-5738
aces	-5739
acil	-5740
acti	-5741
alar	-5742
aled	-5743
alen	-5744
ales	-5745
alit	-5746
alpy	-5747
amag	-5748
amed	-5749
ampl	-5750
ants	-5751
apac	-5752
aral	-5753
ares	-5754
arti	-5755
ases	-5756
asis	-5757
asti	-5758
atas	-5759
ativ	-5760
atri	-5761
ayer	-5762
bers	-5763
call	-5764
cers	-5765
ched	-5766
ches	-5767
city	-5768
cord	-5769
dent	-5770
dial	-5771
dies	-5772
dire	-5773
ecif	-5774
ecom	-5775
econ	-5776
ecti	-5777
ecul	-5778
edef	-5779
eder	-5780
edit	-5781
elas	-5782
elin	-5783
emic	-5784
enin	-5785
ense	-5786
enta	-5787
ente	-5788
enth	-5789
enti	-5790
erat	-5791
eric	-5792
eris	-5793
erit	-5794
erme	-5795
erms	-5796
erri	-5797
ersi	-5798
ersu	-5799
ATO	-5800
COM	-5801
GLT	-5802
IMS	-5803
LTD	-5804
LTF	-5805
LTI	-5806
LTM	-5807
LTO	-5808
LTP	-5809
LTR	-5810
LTT	-5811
LTX	-5812
LTY	-5813
OBE	-5814
OLV	-5815
PCO	-5816
TRA	-5817
UTS	-5818
XST	-5819
cum	-5820
hod	-5821
num	-5822
rst	-5823
ste	-5824
umb	-5825
umm	-5826
umn	-5827
▁FI	-5828
▁FL	-5829
▁FO	-5830
▁FR	-5831
▁FW	-5832
▁Fl	-5833
▁Fo	-5834
▁HI	-5835
▁IO	-5836
▁IP	-5837
▁Id	-5838
▁OV	-5839
ONST	-5840
PNUM	-5841
RANX	-5842
XTRE	-5843
ding	-5844
eing	-5845
erti	-5846
eser	-5847
eset	-5848
esid	-5849
eted	-5850
eter	-5851
etre	-5852
etti	-5853
evel	-5854
ever	-5855
face	-5856
fies	-5857
frac	-5858
gian	-5859
halt	-5860
herm	-5861
hing	-5862
ichi	-5863
ifer	-5864
iles	-5865
ilit	-5866
imen	-5867
imit	-5868
imul	-5869
inar	-5870
inat	-5871
ined	-5872
ingl	-5873
inim	-5874
inin	-5875
init	-5876
ipal	-5877
isab	-5878
isal	-5879
ispl	-5880
issi	-5881
isti	-5882
iter	-5883
itin	-5884
izon	-5885
keyw	-5886
lity	-5887
lows	-5888
lter	-5889
luid	-5890
malg	-5891
nput	-5892
nser	-5893
nter	-5894
ocar	-5895
ocat	-5896
ocks	-5897
odes	-5898
odif	-5899
ASV	-5900
CER	-5901
CTA	-5902
DRE	-5903
ERA	-5904
ERB	-5905
ERP	-5906
FRE	-5907
FTH	-5908
HRE	-5909
IRE	-5910
MER	-5911
MPD	-5912
OAL	-5913
PRE	-5914
QUS	-5915
REA	-5916
REE	-5917
RRE	-5918
STR	-5919
TER	-5920
TIS	-5921
TRE	-5922
cus	-5923
nsm	-5924
ode	-5925
ods	-5926
use	-5927
uss	-5928
▁GC	-5929
▁GE	-5930
▁GR	-5931
▁Ge	-5932
▁OI	-5933
▁OL	-5934
▁OP	-5935
▁OR	-5936
▁Op	-5937
▁ZC	-5938
▁ne	-5939
GDIM	-5940
MULT	-5941
OBIL	-5942
ULTD	-5943
ULTI	-5944
ULTM	-5945
ULTN	-5946
ULTO	-5947
ULTP	-5948
ULTR	-5949
ULTS	-5950
ULTX	-5951
ULTY	-5952
dius	-5953
duce	-5954
hres	-5955
nabl	-5956
odal	-5957
oduc	-5958
odul	-5959
ogon	-5960
olar	-5961
olat	-5962
olec	-5963
olid	-5964
ollo	-5965
olve	-5966
omec	-5967
omet	-5968
omog	-5969
ompa	-5970
ompl	-5971
ompo	-5972
ondi	-5973
onen	-5974
onin	-5975
onit	-5976
onom	-5977
onsi	-5978
onti	-5979
orat	-5980
ords	-5981
oric	-5982
orif	-5983
orin	-5984
orit	-5985
oros	-5986
orre	-5987
orts	-5988
pant	-5989
peci	-5990
pert	-5991
phas	-5992
pies	-5993
plet	-5994
plic	-5995
plif	-5996
plin	-5997
pply	-5998
pute	-5999
ARA	-6000
ATC	-6001
CRT	-6002
GMP	-6003
ILC	-6004
ILM	-6005
ONP	-6006
UMP	-6007
VTA	-6008
cos	-6009
emp	-6010
hem	-6011
iqu	-6012
mbi	-6013
qua	-6014
▁HO	-6015
▁HZ	-6016
▁He	-6017
▁Hy	-6018
▁KW	-6019
▁NC	-6020
▁NE	-6021
▁NI	-6022
▁NM	-6023
▁NN	-6024
▁NS	-6025
▁NT	-6026
▁NZ	-6027
▁Na	-6028
▁Ne	-6029
▁ev	-6030
ATIN	-6031
CTCO	-6032
CTOR	-6033
CTVD	-6034
Comp	-6035
GMAT	-6036
ORDS	-6037
alue	-6038
dary	-6039
ellb	-6040
ells	-6041
emor	-6042
inem	-6043
oper	-6044
ques	-6045
quif	-6046
quil	-6047
rack	-6048
ract	-6049
racy	-6050
radi	-6051
raic	-6052
rans	-6053
rati	-6054
reas	-6055
reat	-6056
redi	-6057
reen	-6058
regi	-6059
resh	-6060
resi	-6061
reti	-6062
rids	-6063
ries	-6064
rill	-6065
rint	-6066
ripl	-6067
rith	-6068
riti	-6069
sate	-6070
seud	-6071
sibl	-6072
sing	-6073
siti	-6074
sive	-6075
sorb	-6076
sors	-6077
spec	-6078
star	-6079
sted	-6080
stem	-6081
sten	-6082
stri	-6083
sure	-6084
tart	-6085
tate	-6086
tent	-6087
thic	-6088
tiat	-6089
tios	-6090
tipl	-6091
titi	-6092
tock	-6093
tora	-6094
tory	-6095
tres	-6096
udke	-6097
uent	-6098
ulat	-6099
ILS	-6100
INP	-6101
INR	-6102
INS	-6103
LIN	-6104
NIN	-6105
OCA	-6106
ONX	-6107
PAX	-6108
RIN	-6109
SON	-6110
SOR	-6111
TIN	-6112
VDV	-6113
anc	-6114
ang	-6115
egi	-6116
gam	-6117
gia	-6118
lan	-6119
pan	-6120
▁LA	-6121
▁LB	-6122
▁La	-6123
▁Le	-6124
CTRA	-6125
DIVY	-6126
ENUM	-6127
ERMT	-6128
ERRO	-6129
GRCO	-6130
ITOR	-6131
LNUM	-6132
QUIM	-6133
RINE	-6134
anal	-6135
anic	-6136
cale	-6137
faci	-6138
fact	-6139
isco	-6140
ntan	-6141
oirs	-6142
pend	-6143
quan	-6144
satu	-6145
ules	-6146
umer	-6147
umes	-6148
umet	-6149
umns	-6150
unen	-6151
unif	-6152
unin	-6153
unit	-6154
unst	-6155
unti	-6156
uppl	-6157
urat	-6158
ured	-6159
ures	-6160
urin	-6161
urre	-6162
used	-6163
user	-6164
uted	-6165
utom	-6166
vera	-6167
verb	-6168
vere	-6169
wing	-6170
word	-6171
xing	-6172
xpec	-6173
yers	-6174
ying	-6175
▁ALP	-6176
▁AMF	-6177
▁Bin	-6178
▁COM	-6179
▁COP	-6180
▁CRE	-6181
▁Cal	-6182
▁Cat	-6183
▁Cri	-6184
▁Cum	-6185
▁Cur	-6186
▁DRE	-6187
▁DUM	-6188
▁Dec	-6189
▁Def	-6190
▁Det	-6191
▁Dif	-6192
▁Dim	-6193
▁Dra	-6194
▁ECH	-6195
▁EHY	-6196
▁ENS	-6197
▁Eac	-6198
▁Exp	-6199
ALR	-6200
ALU	-6201
ATD	-6202
ATR	-6203
ATV	-6204
BAL	-6205
CAL	-6206
HAT	-6207
IML	-6208
JAL	-6209
KAL	-6210
LAC	-6211
MAL	-6212
MON	-6213
OCY	-6214
ONI	-6215
ONM	-6216
ONS	-6217
ONV	-6218
OOR	-6219
ORM	-6220
ORN	-6221
PCV	-6222
PSS	-6223
RAL	-6224
RAP	-6225
SGR	-6226
TIM	-6227
TON	-6228
UIM	-6229
VTO	-6230
ZON	-6231
idu	-6232
irm	-6233
uid	-6234
vid	-6235
CONR	-6236
EATT	-6237
ERMA	-6238
IONX	-6239
OAMO	-6240
OCAS	-6241
OLCR	-6242
ONIN	-6243
RACK	-6244
REGD	-6245
THER	-6246
dsor	-6247
isci	-6248
lant	-6249
▁DAT	-6250
▁FRA	-6251
▁FRE	-6252
▁Flo	-6253
▁Fra	-6254
▁Fre	-6255
▁Ful	-6256
▁GIN	-6257
▁GLT	-6258
▁GRE	-6259
▁Gen	-6260
▁HAL	-6261
▁HIS	-6262
▁HMP	-6263
▁HOR	-6264
▁HRF	-6265
▁HSW	-6266
▁His	-6267
▁Hor	-6268
▁IMS	-6269
▁IPC	-6270
▁Imp	-6271
▁Ind	-6272
▁Ini	-6273
▁Kil	-6274
▁LIN	-6275
▁Loc	-6276
▁MET	-6277
▁MON	-6278
▁Mat	-6279
▁Mem	-6280
▁Mes	-6281
▁Met	-6282
▁Min	-6283
▁Mis	-6284
▁Mul	-6285
▁NET	-6286
▁NOG	-6287
▁NON	-6288
▁NOR	-6289
▁NOW	-6290
▁NPR	-6291
▁Nam	-6292
▁Nin	-6293
▁Not	-6294
▁Out	-6295
▁PAT	-6296
▁PCR	-6297
▁PER	-6298
▁PIM	-6299
AXE	-6300
CTC	-6301
CTP	-6302
CTU	-6303
CTY	-6304
DPP	-6305
EPS	-6306
FRA	-6307
GES	-6308
GRA	-6309
ICT	-6310
ILV	-6311
ITV	-6312
NCL	-6313
NCT	-6314
NRA	-6315
Nam	-6316
OCI	-6317
OCO	-6318
OCX	-6319
OLW	-6320
PST	-6321
QUU	-6322
RAF	-6323
ROC	-6324
TCT	-6325
gth	-6326
tho	-6327
xam	-6328
▁VA	-6329
▁VI	-6330
▁WA	-6331
DREG	-6332
ERMY	-6333
HREG	-6334
HTAB	-6335
PECH	-6336
PREF	-6337
REGP	-6338
XFIN	-6339
YREG	-6340
YVIS	-6341
amat	-6342
apil	-6343
este	-6344
laps	-6345
lary	-6346
sidu	-6347
urth	-6348
▁DRA	-6349
▁Env	-6350
▁Inf	-6351
▁PIN	-6352
▁POR	-6353
▁PPC	-6354
▁PRE	-6355
▁PSS	-6356
▁PSW	-6357
▁Per	-6358
▁Pol	-6359
▁Por	-6360
▁Pre	-6361
▁ROC	-6362
▁Rea	-6363
▁Rep	-6364
▁Roc	-6365
▁SOC	-6366
▁SUM	-6367
▁SWL	-6368
▁SWO	-6369
▁Sal	-6370
▁Sam	-6371
▁Sat	-6372
▁Sec	-6373
▁Sel	-6374
▁Ser	-6375
▁Sim	-6376
▁Ste	-6377
▁Sto	-6378
▁Sum	-6379
▁Sur	-6380
▁THE	-6381
▁TIT	-6382
▁TRA	-6383
▁TRE	-6384
▁TST	-6385
▁Tab	-6386
▁Tec	-6387
▁Tem	-6388
▁Ter	-6389
▁Tit	-6390
▁Tur	-6391
▁Vec	-6392
▁Ver	-6393
▁Vol	-6394
▁Wil	-6395
▁XST	-6396
▁YST	-6397
▁alg	-6398
▁ali	-6399
0).	-6400
AMA	-6401
AME	-6402
APE	-6403
CIT	-6404
CVT	-6405
DIT	-6406
GAM	-6407
GVT	-6408
IFF	-6409
ISA	-6410
ISC	-6411
ISG	-6412
ISP	-6413
ITL	-6414
ITN	-6415
ITO	-6416
ITP	-6417
ITS	-6418
LIT	-6419
LVT	-6420
MPE	-6421
NGM	-6422
NPC	-6423
OIS	-6424
PTR	-6425
RIT	-6426
SIT	-6427
TVT	-6428
VCO	-6429
VTG	-6430
VTY	-6431
▁BG	-6432
▁Ba	-6433
▁Be	-6434
▁Bi	-6435
▁US	-6436
▁Un	-6437
▁WE	-6438
▁ha	-6439
ERBU	-6440
Mans	-6441
OAMF	-6442
OCKT	-6443
ODIM	-6444
PARA	-6445
RAVD	-6446
eren	-6447
fere	-6448
iffe	-6449
itly	-6450
nate	-6451
rays	-6452
rine	-6453
terp	-6454
vate	-6455
▁Bas	-6456
▁COA	-6457
▁COD	-6458
▁COV	-6459
▁CVT	-6460
▁DPC	-6461
▁NOA	-6462
▁SAM	-6463
▁alk	-6464
▁als	-6465
▁ano	-6466
▁arg	-6467
▁asp	-6468
▁ass	-6469
▁aut	-6470
▁bac	-6471
▁bel	-6472
▁bet	-6473
▁bin	-6474
▁bot	-6475
▁cal	-6476
▁cel	-6477
▁cen	-6478
▁col	-6479
▁cou	-6480
▁cri	-6481
▁cum	-6482
▁dea	-6483
▁deb	-6484
▁def	-6485
▁deg	-6486
▁del	-6487
▁dif	-6488
▁dra	-6489
▁eac	-6490
▁eas	-6491
▁eff	-6492
▁eit	-6493
▁fas	-6494
▁fir	-6495
▁flo	-6496
▁fun	-6497
▁gen	-6498
▁gri	-6499
ASR	-6500
FST	-6501
GOF	-6502
ICS	-6503
IDA	-6504
IDL	-6505
IDM	-6506
IFO	-6507
LID	-6508
MST	-6509
NCO	-6510
PTG	-6511
PTO	-6512
PTV	-6513
QUA	-6514
QUC	-6515
QUW	-6516
STA	-6517
STE	-6518
STJ	-6519
STT	-6520
UIL	-6521
UST	-6522
YST	-6523
llo	-6524
lou	-6525
uir	-6526
ADIM	-6527
BDIM	-6528
ERMM	-6529
ERMZ	-6530
FDIM	-6531
ILVT	-6532
IPLY	-6533
LDIM	-6534
PDIM	-6535
QUIL	-6536
RDIM	-6537
UDIM	-6538
VALR	-6539
aliz	-6540
allo	-6541
fter	-6542
kipp	-6543
tera	-6544
tors	-6545
uced	-6546
ucti	-6547
xter	-6548
▁FIL	-6549
▁LIL	-6550
▁MID	-6551
▁acr	-6552
▁hal	-6553
▁han	-6554
▁his	-6555
▁hor	-6556
▁inc	-6557
▁ind	-6558
▁inf	-6559
▁ini	-6560
▁inn	-6561
▁inp	-6562
▁ins	-6563
▁int	-6564
▁iso	-6565
▁lar	-6566
▁lef	-6567
▁len	-6568
▁lic	-6569
▁lif	-6570
▁lin	-6571
▁man	-6572
▁mar	-6573
▁mas	-6574
▁mat	-6575
▁mem	-6576
▁mes	-6577
▁met	-6578
▁min	-6579
▁mis	-6580
▁mul	-6581
▁neg	-6582
▁nin	-6583
▁onl	-6584
▁ord	-6585
▁ori	-6586
▁ort	-6587
▁out	-6588
▁pas	-6589
▁pin	-6590
▁pol	-6591
▁rat	-6592
▁rea	-6593
▁rec	-6594
▁red	-6595
▁reg	-6596
▁rep	-6597
▁req	-6598
▁ret	-6599
CGR	-6600
CHA	-6601
CHX	-6602
CLI	-6603
CLM	-6604
COE	-6605
COP	-6606
EPC	-6607
GMA	-6608
GME	-6609
GMU	-6610
HCO	-6611
MPR	-6612
OLC	-6613
OLU	-6614
OLY	-6615
PGR	-6616
RCL	-6617
RGR	-6618
THO	-6619
bib	-6620
cho	-6621
dke	-6622
eyw	-6623
irc	-6624
irs	-6625
oup	-6626
▁Yo	-6627
DREF	-6628
DSOR	-6629
OAMA	-6630
OAMM	-6631
OISS	-6632
OLID	-6633
REFS	-6634
REFT	-6635
STAC	-6636
XTRA	-6637
chan	-6638
chem	-6639
ests	-6640
imbi	-6641
iron	-6642
lack	-6643
ontr	-6644
over	-6645
upon	-6646
ysis	-6647
▁Ali	-6648
▁DTH	-6649
▁ECL	-6650
▁PCO	-6651
▁REA	-6652
▁SCH	-6653
▁Sup	-6654
▁WAR	-6655
▁WCO	-6656
▁day	-6657
▁row	-6658
▁sal	-6659
▁sam	-6660
▁sat	-6661
▁sec	-6662
▁sen	-6663
▁sin	-6664
▁som	-6665
▁sto	-6666
▁str	-6667
▁stu	-6668
▁sum	-6669
▁sur	-6670
▁tab	-6671
▁tan	-6672
▁tar	-6673
▁tem	-6674
▁ter	-6675
▁tha	-6676
▁thi	-6677
▁tit	-6678
▁tog	-6679
▁und	-6680
▁ups	-6681
▁val	-6682
▁vap	-6683
▁var	-6684
▁vec	-6685
▁vel	-6686
▁vis	-6687
▁wat	-6688
▁wel	-6689
▁wil	-6690
▁wit	-6691
▁wor	-6692
ADFIN	-6693
ADIMS	-6694
ALADS	-6695
ALNUM	-6696
ALREG	-6697
ANALH	-6698
ARFIN	-6699
00.	-6700
ABB	-6701
ABC	-6702
ABL	-6703
ABS	-6704
ASF	-6705
ASW	-6706
CEN	-6707
DDW	-6708
DSC	-6709
EAR	-6710
ECR	-6711
FVD	-6712
GAB	-6713
IEN	-6714
MAR	-6715
NDS	-6716
TAR	-6717
VDI	-6718
VVD	-6719
WCR	-6720
YPC	-6721
egm	-6722
ARAL	-6723
ASIS	-6724
Appl	-6725
EGAB	-6726
OCAR	-6727
VITY	-6728
VTAB	-6729
agon	-6730
ecay	-6731
egin	-6732
inag	-6733
lude	-6734
▁Alk	-6735
▁All	-6736
▁DEN	-6737
▁ENK	-6738
▁FLO	-6739
▁HMA	-6740
▁HMR	-6741
▁Lag	-6742
▁Max	-6743
▁Neg	-6744
▁REF	-6745
▁SAV	-6746
▁THA	-6747
▁THP	-6748
▁THS	-6749
▁THT	-6750
▁THW	-6751
▁giv	-6752
▁max	-6753
ATDIM	-6754
ATNUM	-6755
BDIMS	-6756
CHNUM	-6757
CHREG	-6758
COEFR	-6759
CRWAT	-6760
CTDIM	-6761
CTNUM	-6762
CTYPE	-6763
DDREG	-6764
DFILE	-6765
EDIMS	-6766
EFLXT	-6767
ELDEP	-6768
ELSPE	-6769
ERFAC	-6770
ERMAL	-6771
ERMST	-6772
ERMTH	-6773
ERNUM	-6774
ERSEN	-6775
ETDAT	-6776
FANUM	-6777
FDIMS	-6778
FTRAN	-6779
FUNCR	-6780
GDIMS	-6781
GMULT	-6782
GRIDL	-6783
IDADS	-6784
IGMAT	-6785
ILEUN	-6786
ILVIS	-6787
INSPE	-6788
IOTCT	-6789
IPNUM	-6790
ISCIB	-6791
ISPER	-6792
LDIMS	-6793
MDIMS	-6794
MPSOL	-6795
MROCK	-6796
NEWWT	-6797
NSPEC	-6798
OCKCO	-6799
00)	-6800
00,	-6801
CRW	-6802
DEL	-6803
ELS	-6804
EUN	-6805
GCR	-6806
IEL	-6807
KRO	-6808
LEL	-6809
MPA	-6810
MPW	-6811
PUN	-6812
ROD	-6813
ROP	-6814
ROS	-6815
ULI	-6816
VCR	-6817
WEL	-6818
00).	-6819
CONM	-6820
CONP	-6821
ELIM	-6822
IDUN	-6823
IPST	-6824
KIPS	-6825
MPOR	-6826
MPRE	-6827
ONEL	-6828
PECR	-6829
QUUN	-6830
RFST	-6831
ROGR	-6832
ROPS	-6833
SCON	-6834
UNCR	-6835
VCON	-6836
cted	-6837
etic	-6838
etwe	-6839
nore	-6840
reez	-6841
wton	-6842
ymer	-6843
ypes	-6844
ytic	-6845
▁CIR	-6846
▁NOH	-6847
▁NOS	-6848
▁ran	-6849
CLIPS	-6850
CONIN	-6851
EFLUX	-6852
MSAVE	-6853
ODIMS	-6854
OLNUM	-6855
OMAIN	-6856
OUNGM	-6857
PERAT	-6858
PGRID	-6859
PTDIM	-6860
QDIMS	-6861
QUCON	-6862
QUNUM	-6863
RACER	-6864
RFVIS	-6865
RSOPT	-6866
SSPEC	-6867
STEAD	-6868
Salin	-6869
TDIMS	-6870
THERM	-6871
UDIMS	-6872
ULTRE	-6873
VDIMS	-6874
VTNUM	-6875
WTEMP	-6876
Water	-6877
YROCK	-6878
actor	-6879
ading	-6880
aking	-6881
alcul	-6882
alent	-6883
aline	-6884
aling	-6885
ality	-6886
almer	-6887
alues	-6888
amage	-6889
amate	-6890
analy	-6891
andar	-6892
angmu	-6893
antan	-6894
apill	-6895
arter	-6896
artic	-6897
aterf	-6898
ateri	-6899
ANG	-6900
AXT	-6901
ETD	-6902
ETO	-6903
IPH	-6904
MET	-6905
OMW	-6906
RFC	-6907
RFV	-6908
SET	-6909
UTI	-6910
UTO	-6911
igh	-6912
ngs	-6913
▁ig	-6914
ANGM	-6915
EFIN	-6916
FLUX	-6917
IGMO	-6918
LOPT	-6919
MOPT	-6920
OLUT	-6921
RIDF	-6922
URFA	-6923
URFR	-6924
UTRA	-6925
YFIN	-6926
ally	-6927
ervo	-6928
hang	-6929
ucts	-6930
▁FLU	-6931
▁LOW	-6932
▁div	-6933
ASVIS	-6934
ATOPT	-6935
ATVIS	-6936
KROCK	-6937
OMGAS	-6938
PYREG	-6939
RANTH	-6940
RIDUN	-6941
RROCK	-6942
ULTPV	-6943
URFST	-6944
athol	-6945
ating	-6946
ayers	-6947
calar	-6948
caled	-6949
cales	-6950
cates	-6951
ching	-6952
chout	-6953
compa	-6954
cover	-6955
cture	-6956
cumul	-6957
dated	-6958
denti	-6959
ducti	-6960
eabil	-6961
eater	-6962
ecomp	-6963
eders	-6964
editi	-6965
edule	-6966
efaul	-6967
efere	-6968
effic	-6969
efini	-6970
efore	-6971
egion	-6972
eighb	-6973
elect	-6974
eling	-6975
embed	-6976
ended	-6977
enden	-6978
enhan	-6979
ensor	-6980
ental	-6981
ented	-6982
entra	-6983
entri	-6984
eomec	-6985
eomet	-6986
eresi	-6987
ereti	-6988
erfac	-6989
erity	-6990
errid	-6991
error	-6992
ervic	-6993
escri	-6994
eserv	-6995
esian	-6996
essag	-6997
esses	-6998
essor	-6999
APO	-7000
GDV	-7001
LYM	-7002
LYS	-7003
MTR	-7004
RGT	-7005
VAP	-7006
XTF	-7007
cib	-7008
owb	-7009
ude	-7010
▁JF	-7011
EATV	-7012
GION	-7013
LYAT	-7014
MALG	-7015
OPTI	-7016
RANG	-7017
RANR	-7018
ains	-7019
ibri	-7020
irms	-7021
neig	-7022
olog	-7023
tain	-7024
▁INS	-7025
▁JAL	-7026
▁Jar	-7027
▁cha	-7028
ANALV	-7029
CHEAT	-7030
EATCR	-7031
EATTH	-7032
ERMEX	-7033
ETOPT	-7034
IGMAG	-7035
IGMAV	-7036
LOPTS	-7037
LYVIS	-7038
MULIX	-7039
PRESF	-7040
PTION	-7041
SIGMA	-7042
energ	-7043
etail	-7044
eterm	-7045
eters	-7046
ethan	-7047
ether	-7048
etion	-7049
etwor	-7050
faces	-7051
forms	-7052
gence	-7053
gical	-7054
gions	-7055
gment	-7056
hical	-7057
holog	-7058
iases	-7059
iated	-7060
icien	-7061
ifers	-7062
imiti	-7063
imits	-7064
immis	-7065
incip	-7066
ingen	-7067
ining	-7068
inity	-7069
inted	-7070
inter	-7071
ircle	-7072
isabl	-7073
iscib	-7074
ision	-7075
isper	-7076
issib	-7077
istic	-7078
ithin	-7079
itted	-7080
izont	-7081
kflow	-7082
lares	-7083
locks	-7084
ments	-7085
meter	-7086
metic	-7087
metri	-7088
nable	-7089
nical	-7090
nsert	-7091
nsion	-7092
nspor	-7093
ntion	-7094
ocarb	-7095
ocate	-7096
ocity	-7097
odels	-7098
oding	-7099
ADI	-7100
ADJ	-7101
ADY	-7102
AGD	-7103
DIR	-7104
EDE	-7105
EGA	-7106
KRW	-7107
MKR	-7108
MOD	-7109
NCG	-7110
NCs	-7111
New	-7112
OBS	-7113
ODE	-7114
PKR	-7115
SES	-7116
UDE	-7117
VMF	-7118
AMES	-7119
ARTT	-7120
ELDE	-7121
KRGR	-7122
KROR	-7123
KRVD	-7124
NSPE	-7125
OBAL	-7126
OCIR	-7127
ORMF	-7128
PSDE	-7129
RAPM	-7130
SSPE	-7131
TYPE	-7132
YPES	-7133
ards	-7134
ious	-7135
naly	-7136
peed	-7137
▁ALS	-7138
▁GAD	-7139
▁MES	-7140
▁PSP	-7141
ALVAL	-7142
AXVAL	-7143
COMPS	-7144
CONMF	-7145
CTRAC	-7146
DSKIP	-7147
RACIT	-7148
THETA	-7149
UNSPE	-7150
URFAD	-7151
alten	-7152
eroth	-7153
erpol	-7154
lobal	-7155
nsoor	-7156
oints	-7157
olate	-7158
ollap	-7159
ollow	-7160
olume	-7161
olumn	-7162
olver	-7163
omain	-7164
ompas	-7165
omple	-7166
ompon	-7167
omput	-7168
ordin	-7169
ories	-7170
oring	-7171
orith	-7172
orosi	-7173
perat	-7174
persi	-7175
pical	-7176
plied	-7177
plies	-7178
pling	-7179
press	-7180
puted	-7181
quent	-7182
quire	-7183
racer	-7184
raint	-7185
ramet	-7186
rapol	-7187
resen	-7188
ressi	-7189
riple	-7190
river	-7191
roces	-7192
rossf	-7193
roups	-7194
ructs	-7195
sibil	-7196
sible	-7197
sions	-7198
start	-7199
AGT	-7200
CAP	-7201
EDT	-7202
IAG	-7203
QLD	-7204
QLZ	-7205
SAV	-7206
lux	-7207
300.	-7208
APAX	-7209
APUN	-7210
CSOL	-7211
DENS	-7212
DIVX	-7213
ETAV	-7214
GSOL	-7215
INAG	-7216
ISAG	-7217
KADS	-7218
LEPS	-7219
LITY	-7220
ROSS	-7221
SITY	-7222
bedd	-7223
etro	-7224
hanc	-7225
loug	-7226
tric	-7227
▁Ass	-7228
▁KVG	-7229
▁KVW	-7230
▁Pro	-7231
▁SGO	-7232
▁TRN	-7233
▁TRP	-7234
▁ZFA	-7235
▁enc	-7236
▁gro	-7237
APOIL	-7238
ASSOL	-7239
CHOUT	-7240
CUNIT	-7241
DTRAN	-7242
EGSOL	-7243
IFOUT	-7244
IMENS	-7245
INCHX	-7246
MPORD	-7247
OLADS	-7248
XTFIN	-7249
etrel	-7250
hanic	-7251
icken	-7252
stere	-7253
stric	-7254
sulti	-7255
tabul	-7256
tates	-7257
teris	-7258
therm	-7259
ticul	-7260
tiona	-7261
tione	-7262
tions	-7263
torag	-7264
toric	-7265
tress	-7266
troll	-7267
tures	-7268
ubble	-7269
ucers	-7270
uence	-7271
ultig	-7272
ultin	-7273
ultip	-7274
ultis	-7275
ument	-7276
uning	-7277
urden	-7278
uring	-7279
using	-7280
usion	-7281
utoma	-7282
vates	-7283
verag	-7284
vices	-7285
vitch	-7286
ximum	-7287
xture	-7288
▁ACTP	-7289
▁ADDZ	-7290
▁AQUA	-7291
▁AQUQ	-7292
▁AQUS	-7293
▁AQUT	-7294
▁AQUW	-7295
▁AUTO	-7296
▁Acti	-7297
▁Allo	-7298
▁Appl	-7299
BLE	-7300
BUR	-7301
EBU	-7302
EFL	-7303
EFR	-7304
EOM	-7305
EOY	-7306
HEX	-7307
NOS	-7308
PVV	-7309
SIC	-7310
SNO	-7311
VEO	-7312
WTE	-7313
WWT	-7314
ype	-7315
▁yi	-7316
ABLE	-7317
ALNO	-7318
CGAS	-7319
CWAT	-7320
DEBU	-7321
EBUG	-7322
ELEX	-7323
ELLS	-7324
EMPA	-7325
INEX	-7326
LTEF	-7327
MGAS	-7328
MOBE	-7329
MOBS	-7330
MTIN	-7331
OPRO	-7332
TEMP	-7333
angm	-7334
ebug	-7335
ossf	-7336
tity	-7337
▁HYD	-7338
▁VFE	-7339
ALTNO	-7340
ELSEG	-7341
ICENS	-7342
ISGAS	-7343
MTOUT	-7344
VISCS	-7345
VTEMP	-7346
WTRAN	-7347
hould	-7348
▁CNAM	-7349
▁COAR	-7350
▁CODT	-7351
▁COVT	-7352
▁Cart	-7353
▁Conf	-7354
▁DEAD	-7355
▁DIFE	-7356
▁DISP	-7357
▁DPKR	-7358
▁DRIL	-7359
▁DZMT	-7360
▁Diff	-7361
▁Disc	-7362
▁ENDB	-7363
▁ENPC	-7364
▁ENPT	-7365
▁EPSD	-7366
▁EPSO	-7367
▁EQLZ	-7368
▁FACT	-7369
▁FMTH	-7370
▁Frac	-7371
▁Free	-7372
▁GASF	-7373
▁GASL	-7374
▁GASW	-7375
▁GDIM	-7376
▁GDOR	-7377
▁GLTH	-7378
▁HMML	-7379
▁HMMR	-7380
▁HSOR	-7381
▁Hyst	-7382
▁IMKR	-7383
▁IMPC	-7384
▁IMPE	-7385
▁IMPS	-7386
▁IMPT	-7387
▁INCL	-7388
▁INCO	-7389
▁INRA	-7390
▁Imbi	-7391
▁Impl	-7392
▁Inde	-7393
▁Indi	-7394
▁Inst	-7395
▁KVAL	-7396
▁KVCO	-7397
▁LANG	-7398
▁LUMP	-7399
CYW	-7400
EPP	-7401
ffe	-7402
DCYW	-7403
DPCO	-7404
FLTS	-7405
GRAD	-7406
HYKR	-7407
HYPC	-7408
PLIT	-7409
RADN	-7410
SALT	-7411
SMAX	-7412
THMD	-7413
WMAX	-7414
ackw	-7415
derb	-7416
echo	-7417
firm	-7418
gins	-7419
houl	-7420
ickn	-7421
lane	-7422
ound	-7423
ssig	-7424
▁DZN	-7425
▁Dep	-7426
▁EDF	-7427
▁Eff	-7428
▁Ext	-7429
▁FUL	-7430
▁PVC	-7431
▁PVI	-7432
▁PVZ	-7433
▁SCD	-7434
▁SOW	-7435
ALTEF	-7436
ETWOR	-7437
IGMOD	-7438
MEGAB	-7439
PCVDV	-7440
PLITY	-7441
UTRAD	-7442
atory	-7443
egins	-7444
firms	-7445
hange	-7446
icens	-7447
olati	-7448
stenc	-7449
tized	-7450
▁CRND	-7451
▁DEPT	-7452
▁HSGR	-7453
▁MAXT	-7454
▁MIND	-7455
▁MINN	-7456
▁MINP	-7457
▁MINV	-7458
▁Misc	-7459
▁NNCG	-7460
▁OILM	-7461
▁OILS	-7462
▁OILV	-7463
▁ORTH	-7464
▁OVER	-7465
▁Oper	-7466
▁PEDT	-7467
▁PLYM	-7468
▁PLYS	-7469
▁PSGR	-7470
▁PSOR	-7471
▁PVCD	-7472
▁Para	-7473
▁Perm	-7474
▁Poly	-7475
▁Pres	-7476
▁RPTH	-7477
▁RPTP	-7478
▁RPTS	-7479
▁Redu	-7480
▁Repl	-7481
▁SCAL	-7482
▁SOLW	-7483
▁SPEC	-7484
▁STAR	-7485
▁Satu	-7486
▁Skip	-7487
▁Solu	-7488
▁Spec	-7489
▁Star	-7490
▁Ston	-7491
▁TBAS	-7492
▁THAN	-7493
▁THCO	-7494
▁THCR	-7495
▁TPAM	-7496
▁TRCO	-7497
▁Tabl	-7498
▁Term	-7499
EED	-7500
IVR	-7501
IVX	-7502
IVY	-7503
ubb	-7504
DPPM	-7505
INEY	-7506
IVEO	-7507
JECT	-7508
KOIL	-7509
MEGA	-7510
NECT	-7511
PIGR	-7512
RESF	-7513
ROPF	-7514
RORW	-7515
ZCOR	-7516
ZNET	-7517
athn	-7518
bout	-7519
ubre	-7520
ubse	-7521
▁CRN	-7522
▁PED	-7523
▁tim	-7524
ARNEP	-7525
CRITS	-7526
GFILE	-7527
GIONS	-7528
KPERM	-7529
LWELL	-7530
PFLUX	-7531
RESET	-7532
UMRES	-7533
ators	-7534
encod	-7535
rovid	-7536
umber	-7537
▁COND	-7538
▁CONV	-7539
▁GEOY	-7540
▁SECT	-7541
▁Thet	-7542
▁UNCO	-7543
▁VECT	-7544
▁VEDE	-7545
▁VFPP	-7546
▁VISC	-7547
▁Vari	-7548
▁WATD	-7549
▁Youn	-7550
▁ZCOR	-7551
▁acco	-7552
▁acti	-7553
▁addi	-7554
▁anal	-7555
▁aque	-7556
▁arra	-7557
▁asph	-7558
▁assi	-7559
▁bott	-7560
▁boun	-7561
▁cann	-7562
▁cent	-7563
▁coar	-7564
▁coef	-7565
▁comb	-7566
▁conc	-7567
▁cond	-7568
▁cons	-7569
▁conv	-7570
▁coor	-7571
▁corn	-7572
▁curv	-7573
▁dens	-7574
▁depo	-7575
▁dire	-7576
▁disc	-7577
▁diss	-7578
▁edit	-7579
▁eith	-7580
▁enth	-7581
▁enti	-7582
▁equi	-7583
▁exam	-7584
▁expl	-7585
▁faul	-7586
▁fire	-7587
▁flas	-7588
▁frac	-7589
▁gase	-7590
▁grap	-7591
▁grav	-7592
▁hand	-7593
▁heig	-7594
▁hydr	-7595
▁hyst	-7596
▁impl	-7597
▁inde	-7598
▁indu	-7599
BGS	-7600
CFS	-7601
GGI	-7602
GSL	-7603
LDF	-7604
LLA	-7605
MIX	-7606
OMA	-7607
SPH	-7608
USE	-7609
EMOR	-7610
EMPT	-7611
FUNC	-7612
IOTC	-7613
IZON	-7614
JUST	-7615
LACK	-7616
LAPS	-7617
LTOS	-7618
MARY	-7619
MULI	-7620
OUND	-7621
REEZ	-7622
VDRB	-7623
VDRM	-7624
ront	-7625
▁BIO	-7626
▁ISG	-7627
▁ISW	-7628
▁PEB	-7629
ANALB	-7630
DATAB	-7631
DPCDT	-7632
EZEPC	-7633
INAGE	-7634
MPORT	-7635
OMWAT	-7636
OPROD	-7637
PHALT	-7638
RSOUT	-7639
STACK	-7640
arget	-7641
cible	-7642
evere	-7643
▁ALPH	-7644
▁Jarg	-7645
▁Joff	-7646
▁METR	-7647
▁NOGG	-7648
▁NUPC	-7649
▁RADI	-7650
▁RESV	-7651
▁Wils	-7652
▁inst	-7653
▁keyw	-7654
▁leng	-7655
▁line	-7656
▁liqu	-7657
▁mand	-7658
▁meth	-7659
▁misc	-7660
▁oper	-7661
▁orig	-7662
▁orth	-7663
▁para	-7664
▁perm	-7665
▁phas	-7666
▁plas	-7667
▁poly	-7668
▁posi	-7669
▁prev	-7670
▁proc	-7671
▁prop	-7672
▁quan	-7673
▁rang	-7674
▁regi	-7675
▁rela	-7676
▁repl	-7677
▁resi	-7678
▁righ	-7679
▁satu	-7680
▁sing	-7681
▁solu	-7682
▁solv	-7683
▁stac	-7684
▁stan	-7685
▁star	-7686
▁stat	-7687
▁stra	-7688
▁syst	-7689
▁tabl	-7690
▁ther	-7691
▁thic	-7692
▁thre	-7693
▁unen	-7694
▁unif	-7695
▁unst	-7696
▁unti	-7697
▁vari	-7698
▁vers	-7699
RXV	-7700
DHMD	-7701
ECHO	-7702
IALL	-7703
LANG	-7704
LAQU	-7705
UALP	-7706
oiss	-7707
rite	-7708
▁Bak	-7709
▁abs	-7710
▁rig	-7711
ALECR	-7712
ARALL	-7713
CHEDU	-7714
EMORY	-7715
LANGS	-7716
MONIT	-7717
MTRXV	-7718
OBALF	-7719
PFNNC	-7720
PROCX	-7721
PROCY	-7722
PTODD	-7723
RACTU	-7724
ROSSF	-7725
TOBAL	-7726
ixing	-7727
lough	-7728
nally	-7729
roduc	-7730
udkev	-7731
upply	-7732
ussed	-7733
▁CGDT	-7734
▁FORM	-7735
▁PATH	-7736
▁WAGH	-7737
▁weig	-7738
▁whic	-7739
▁whol	-7740
ABDIMS	-7741
ACTION	-7742
ACTRAC	-7743
AGDISP	-7744
AGTRAC	-7745
ALPERM	-7746
APUNIT	-7747
ATDIMS	-7748
ATINIT	-7749
ATOPTS	-7750
AXVALU	-7751
BMOPTS	-7752
COMPRE	-7753
CONINJ	-7754
CONPRO	-7755
CTDIMS	-7756
CWATER	-7757
DPDIMS	-7758
EFLXTF	-7759
EGDIMS	-7760
ELSPEC	-7761
EMPTVD	-7762
EMSAVE	-7763
ENSITY	-7764
EODIMS	-7765
EPDIMS	-7766
ETOPTS	-7767
EWTRAN	-7768
FACTOR	-7769
FREEZE	-7770
GVTYPE	-7771
HYSTRR	-7772
IGMATH	-7773
IMODEL	-7774
INENUM	-7775
INROCK	-7776
INSPEC	-7777
ISTORY	-7778
ITPERM	-7779
JECTOR	-7780
LDTRAN	-7781
LUXNUM	-7782
LUXOPT	-7783
LUXREG	-7784
LYROCK	-7785
MTSAVE	-7786
NRDIMS	-7787
OCKCON	-7788
OCKDIM	-7789
OLCRIT	-7790
ONROCK	-7791
OPTION	-7792
ORDSYS	-7793
OSIGMA	-7794
OWSALT	-7795
Option	-7796
PCWMAX	-7797
PERNUM	-7798
PFANUM	-7799
KTR	-7800
OGI	-7801
nue	-7802
ook	-7803
ydr	-7804
BURD	-7805
DROC	-7806
HEAR	-7807
IENT	-7808
INDX	-7809
OLYM	-7810
RICT	-7811
ZONE	-7812
ortc	-7813
tcut	-7814
ynam	-7815
▁SLG	-7816
ACRAT	-7817
AGDIS	-7818
EPOIN	-7819
ESSAG	-7820
ISSON	-7821
JGRAD	-7822
KTRMD	-7823
THOST	-7824
btain	-7825
gebra	-7826
homog	-7827
meste	-7828
rangi	-7829
reats	-7830
seudo	-7831
tcuts	-7832
▁GINO	-7833
▁Opti	-7834
▁QMOB	-7835
▁shor	-7836
CBDIMS	-7837
ETDATA	-7838
ETWORK	-7839
IVEOIL	-7840
NEWWTF	-7841
Newton	-7842
PHALTE	-7843
PLPORO	-7844
PRESET	-7845
PTDIMS	-7846
PTHTAB	-7847
PTIONS	-7848
QLDIMS	-7849
QLOPTS	-7850
QUDIMS	-7851
RANTHT	-7852
RTHERR	-7853
SEFLUX	-7854
SEGSOL	-7855
SGFILE	-7856
SOLNUM	-7857
SPCVDV	-7858
SSNODE	-7859
STEADY	-7860
STTRAC	-7861
SURFAD	-7862
SURFST	-7863
THERMX	-7864
THETAV	-7865
TOBALF	-7866
ULLIMP	-7867
ULTDIM	-7868
UMMARY	-7869
UNSPEC	-7870
URFOPT	-7871
URFVIS	-7872
VCONST	-7873
VTYPES	-7874
WARNEP	-7875
XTHOST	-7876
ackwar	-7877
actant	-7878
agonal	-7879
alorif	-7880
altene	-7881
antity	-7882
argets	-7883
argins	-7884
arning	-7885
arying	-7886
atical	-7887
ativel	-7888
atures	-7889
bility	-7890
bition	-7891
caling	-7892
centri	-7893
change	-7894
cility	-7895
compas	-7896
cosity	-7897
dentif	-7898
derbur	-7899
covery	-7900
dients	-7901
dpoint	-7902
ductiv	-7903
eading	-7904
ealing	-7905
eature	-7906
ecking	-7907
ective	-7908
edefin	-7909
edness	-7910
edules	-7911
efined	-7912
egment	-7913
eighti	-7914
eights	-7915
elects	-7916
ements	-7917
emical	-7918
endent	-7919
eneous	-7920
energy	-7921
ensiti	-7922
entere	-7923
ention	-7924
erated	-7925
erates	-7926
eresis	-7927
eretic	-7928
erform	-7929
ersion	-7930
erties	-7931
essage	-7932
essing	-7933
▁	-7934
e	-7935
i	-7936
t	-7937
o	-7938
r	-7939
n	-7940
a	-7941
s	-7942
l	-7943
c	-7944
u	-7945
f	-7946
p	-7947
d	-7948
m	-7949
h	-7950
.	-7951
S	-7952
b	-7953
R	-7954
T	-7955
E	-7956
y	-7957
M	-7958
A	-7959
g	-7960
P	-7961
C	-7962
O	-7963
I	-7964
D	-7965
v	-7966
L	-7967
N	-7968
U	-7969
F	-7970
-	-7971
G	-7972
w	-7973
x	-7974
V	-7975
k	-7976
H	-7977
,	-7978
Y	-7979
K	-7980
X	-7981
W	-7982
B	-7983
Z	-7984
q	-7985
(	-7986
)	-7987
z	-7988
0	-7989
Q	-7990
1	-7991
2	-7992
3	-7993
J	-7994
/	-7995
